<s>
</s>
<cls>
<pad>
<unk>
<mask>
[UNK]
[SEP]
[PAD]
[CLS]
[MASK]
[EOL]
[URL]
!
"
#
$
%
&
'
(
)
*
+
,
-
.
/
0
1
2
3
4
5
6
7
8
9
:
;
<
=
>
?
@
A
B
C
D
E
F
G
H
I
J
K
L
M
N
O
P
Q
R
S
T
U
V
W
X
Y
Z
[
\
]
^
_
`
a
b
c
d
e
f
g
h
i
j
k
l
m
n
o
p
q
r
s
t
u
v
w
x
y
z
{
|
}
~
§
¨
«
°
±
·
»
×
ß
æ
ø
ı
ɵ
ʹ
˜
Δ
Θ
Ω
α
β
δ
ε
λ
φ
ψ
ω
Д
И
М
П
С
а
б
в
г
д
е
ж
з
и
к
л
м
н
о
п
р
с
т
у
ф
х
ц
ч
ш
ъ
ы
ь
э
ю
я
ա
բ
ե
ի
հ
մ
ո
ս
տ
ր
ა
ბ
ე
ვ
ი
ლ
მ
რ
ს
ტ
ᄀ
ᄂ
ᄃ
ᄅ
ᄆ
ᄇ
ᄉ
ᄋ
ᄌ
ᄎ
ᄐ
ᄑ
ᄒ
ᅡ
ᅢ
ᅥ
ᅦ
ᅧ
ᅩ
ᅭ
ᅮ
ᅳ
ᅴ
ᅵ
ᆨ
ᆫ
ᆯ
ᆹ
ᆼ
–
—
‘
’
“
”
•
…
€
→
↓
⇧
−
∞
≤
⌘
─
│
┌
┐
└
┘
├
┤
┬
┴
═
║
╔
╗
╚
╝
╠
╣
╦
╩
✓
✔
✖
✘
❌
⠂
⠋
⠐
⠒
⠙
、
。
〇
【
】
あ
い
う
か
き
く
け
こ
さ
し
す
せ
そ
た
っ
つ
て
と
な
に
の
は
ま
み
め
も
よ
ら
り
る
れ
わ
を
ん
ァ
ィ
イ
ェ
エ
オ
キ
ク
コ
サ
シ
ス
タ
チ
ッ
テ
ト
ナ
ハ
フ
ヘ
マ
メ
モ
ャ
ュ
ョ
ラ
リ
ル
レ
ロ
ン
ー
一
三
上
下
不
与
且
东
两
个
中
串
临
为
主
举
么
义
之
也
了
事
二
于
些
交
产
仅
从
他
代
令
以
们
件
任
份
休
优
会
传
估
似
但
位
低
体
何
余
作
你
使
例
供
依
便
保
信
修
候
値
值
偏
做
停
储
像
允
元
充
先
免
入
全
公
共
关
其
具
兼
内
册
再
写
冲
决
况
准
减
几
処
出
击
函
分
切
列
则
创
初
删
判
别
到
制
刷
刻
削
前
剩
割
力
功
加
务
动
動
包
化
匹
区
十
升
午
半
单
博
占
卡
印
即
历
压
原
去
参
及
双
反
发
取
变
口
句
只
可
台
史
右
号
各
合
同
名
后
向
否
含
听
启
告
命
和
响
唯
器
回
因
围
国
图
在
地
址
均
坐
块
型
域
基
報
場
塞
填
境
增
声
处
备
変
复
外
多
大
天
失
头
夹
好
如
始
子
字
存
它
安
完
定
实
実
客
容
宽
密
对
导
対
射
将
小
少
尔
尝
就
尾
局
层
展
属
嵌
工
左
己
已
布
带
常
平
年
并
广
序
库
应
度
廓
建
开
异
式
引
弹
强
归
当
录
形
径
待
後
得
復
循
微
必
志
快
忽
态
性
总
息
您
情
想
意
成
我
或
截
戳
户
所
扁
手
才
打
执
扩
找
把
抛
报
抽
拉
拖
拟
择
括
拷
拼
持
挂
指
按
捕
换
据
捷
掉
排
接
控
推
描
提
插
換
播
操
支
收
改
放
效
数
整
文
断
新
方
无
日
旧
时
明
星
映
是
显
時
普
暂
暴
曲
更
書
替
最
月
有
服
期
未
本
机
权
束
条
来
板
构
析
果
某
染
查
标
栈
树
校
样
根
格
框
档
检
業
模
横
次
止
正
此
步
死
殊
段
毁
每
比
毕
求
没
泄
法
注
活
派
流
测
浏
消
深
添
清
渡
渲
源
滑
滚
满
滤
漏
漢
点
無
然
照
父
片
版
牌
特
状
独
环
现
現
理
生
用
由
画
留
略
登
白
百
的
监
盖
目
直
相
省
看
真
着
知
码
确
示
禁
离
种
秒
称
移
程
稍
空
立
端
符
第
等
签
简
算
管
类
系
納
素
索
级
纯
线
组
终
经
绑
结
绘
给
络
绝
统
继
续
维
缀
缓
编
缩
缺
网
罩
置
署
老
考
者
而
联
能
脚
自
至
致
般
色
节
若
范
获
菜
藏
虑
虚
行
补
表
被
装
西
要
覆
见
规
视
览
角
解
触
言
計
設
警
计
认
让
记
许
设
访
证
评
识
词
译
试
话
询
该
语
误
说
请
读
调
象
贝
败
资
赋
赖
走
起
超
足
距
路
跳
身
転
车
转
轮
载
较
辑
输
边
达
过
运
返
还
这
进
连
述
追
退
送
逆
选
递
通
速
造
週
逻
遇
遍
道
遮
避
那
部
都
配
采
释
里
重
量
针
钥
钮
链
销
锁
错
键
长
開
間
関
闭
问
间
队
防
附
际
限
除
隐
隔
集
零
需
露
静
非
面
音
页
顶
项
顺
须
预
题
颜
额
饰
首
验
高
默
齐
ﬁ
！
（
）
，
：
；
？
ｰ
ﾉ
ﾟ
🎁
##a
##y
##e
##r
##s
##p
##P
##o
##g
##n
##S
##t
##i
##f
##T
##V
##A
##I
##L
##B
##Y
##R
##l
##F
##m
##x
##u
##c
##k
##H
##h
##1
##d
##C
##b
##E
##W
##D
##K
##O
##j
##v
##U
##2
##5
##6
##0
##w
##M
##8
##3
##4
##N
##9
##G
##7
##Z
##q
##Q
##z
##J
##X
##の
##ル
##っ
##て
##い
##れ
##は
##オ
##フ
##シ
##ェ
##ク
##ト
##を
##╩
##═
##╝
##╚
##е
##к
##с
##т
##о
##в
##ы
##и
##ı
##л
##я
##н
##┌
##─
##┐
##у
##ц
##п
##р
##а
##ᅦ
##ᄋ
##ᅵ
##ᄇ
##ᅳ
##ᆯ
##ᅴ
##┬
##レ
##ヘ
##も
##ン
##ラ
##г
##м
##ᅡ
##ᆼ
##ᄉ
##ᅩ
##ᆨ
##る
##ж
##ᄅ
##ᄒ
##ᄀ
##キ
##ー
##マ
##ッ
##チ
##ᅢ
##ᅥ
##ш
##д
##メ
##ュ
##イ
##タ
##ハ
##か
##ч
##ь
##ロ
##ᄎ
##з
##ｰ
##ﾟ
##ε
##ᄂ
##ᄆ
##ᅧ
##ᆫ
##°
##ᄐ
##ր
##ի
##ß
##б
##ス
##と
##ᅭ
##す
##δ
##う
##せ
##な
##ʹ
##ᄌ
##た
##め
##に
##つ
##け
##╣
##╠
##ᅮ
##ე
##ტ
##მ
##ბ
##რ
##ს
##し
##λ
##Ω
##└
##┘
##┴
##ю
##ъ
##ո
##ս
##ャ
##−
##み
##ァ
##コ
##╗
##х
##├
##┤
##こ
##ら
##ま
##ø
##ა
##ი
##テ
##ィ
##ᄃ
##˜
##き
##リ
##ナ
##│
##φ
##ვ
##ᆹ
##サ
##あ
##り
##β
##ե
##տ
##մ
##բ
##ф
##よ
##ョ
##╦
##×
##æ
##α
##⠙
##╔
##ん
##║
##モ
##ლ
##€
##そ
##ա
##⠋
##❌
##ᄑ
##さ
##⠒
##⠂
##⠐
##ψ
##э
##→
##↓
##く
##Θ
##ﾉ
##✓
##ω
##エ
##С
##✔
##〇
##Д
##✘
##わ
##on
##er
##ti
##en
##et
##es
##at
##ar
##tion
##in
##or
##al
th
##le
##ur
##is
##nc
if
##ent
##se
##de
##ro
##am
##unc
##unction
##ec
function
ret
##urn
return
##ed
con
var
##ac
##st
##ul
##rr
this
in
##an
##it
st
re
##re
##ue
##ing
##ame
##ut
##pe
##ode
##ate
op
##ype
##ig
##il
to
##ect
##el
##as
##th
##ag
##tions
res
the
##ment
ne
##om
##xt
is
##ol
par
##ath
val
pro
##ad
##bj
##ch
##ess
##od
for
##ey
##ata
##ay
tr
##nd
##tr
##ter
##oc
##ic
##em
##id
el
##ef
##pl
err
type
##ile
get
options
##ult
##ot
new
##ve
##ack
ch
len
##gth
##all
##ap
else
##ir
##ab
##ow
##im
length
const
##ts
key
##In
value
##us
name
##ase
##rg
##bject
##um
##age
##ext
##ull
data
##est
##ers
##ation
##Name
##dex
##ce
lo
ex
##per
node
##ou
cont
id
arg
##ff
call
##ty
str
null
on
##atch
##ist
##qu
##end
cl
##fig
##ion
##rray
com
##ri
##and
un
true
result
path
##lement
##vent
##iz
##ine
def
##ach
param
##able
##ver
set
##Con
error
##ser
##ll
##St
##rror
##back
##alse
##ind
false
##ild
it
##os
##dd
##rom
##our
##ace
file
##ng
index
##art
##of
su
##ge
##ass
##oin
log
##Path
##ort
ap
##ak
##Id
as
de
##ct
##put
config
##ht
##Pro
##ument
##if
se
##ain
of
##To
##ush
##ib
##ttr
let
##Val
##out
##ore
##pon
callback
string
add
sc
push
en
##00
requ
##row
##anc
##ined
case
fil
object
cur
##rl
##orm
##ource
##ight
##ize
wh
##ken
##lo
##ime
##ole
bu
##ith
be
an
##ule
##arg
##cess
col
##ault
has
##ber
sh
cre
##ug
##essage
or
typeof
met
##ead
##ord
##def
##perty
##op
pre
##Ch
##ting
##ice
##Type
event
sel
##tring
##defined
exp
element
args
##ock
ac
and
self
parse
##Data
##reak
##ps
undefined
##ress
create
out
##arget
mod
curr
##set
##nt
throw
opts
##ance
##ew
sp
we
##ans
default
break
obj
##ast
##mp
##ure
##Key
##Node
not
##ON
##ix
match
parent
start
item
##ition
inst
next
##eck
##hod
attr
##ax
end
##uer
##un
cons
map
##Value
##ise
js
current
##Error
##lect
resol
##Op
text
code
message
##Cont
##umber
##up
doc
##File
##eld
url
##ove
0x
##ield
##fo
sub
##Of
##Cl
Error
##Index
##Re
##ject
target
##ange
##ator
##uery
##ite
##tive
##ffer
##odel
##pt
from
wr
up
##ust
repl
child
##one
##iew
##String
state
rem
##ync
pl
context
ext
##Element
dir
##List
##Array
Object
##Ex
##ly
##idth
##Par
token
line
all
##ound
argument
ht
console
source
##ody
content
##ger
##ount
loc
##til
params
that
##ign
##ient
al
method
ser
with
##ail
##ip
stat
##val
form
pos
##ibut
replace
app
##ener
##cri
##Com
resolve
list
array
then
read
##ponse
##Res
Th
##mit
##ost
##ffset
hand
##ok
sl
##oot
##iv
##ink
##sed
##ang
##eight
##ide
req
##ues
##ub
class
##date
##act
##roll
check
instance
dis
del
##ction
##ream
request
##ep
##ory
keys
join
trans
process
##Each
##ated
arguments
input
##Event
body
no
max
base
sty
query
last
##ersion
##ames
##ler
forEach
##ml
##ss
##Time
##form
##ies
##ties
tem
head
ref
##ponent
user
##EA
pr
module
Math
##tic
##ache
##ope
cb
field
##ire
##Object
property
##Exp
tag
##ity
##irst
filter
##rc
time
##ete
##Property
model
##bug
##LE
##ded
by
comp
prot
##Options
remove
10
##og
##ection
spl
##oint
##ender
test
response
##eft
##ave
valid
Array
##tern
can
##Se
##abel
##32
min
##Map
select
##lock
##Dir
##ify
##str
##port
number
des
##vice
##ale
##Config
##enc
##tial
prop
##Col
output
##der
##State
document
debug
indexOf
update
style
##name
##ask
appl
##ial
rec
##ick
##wn
##ere
##lection
##Class
##Text
##ER
##ill
##own
dep
##ont
at
##Code
HEA
##Attr
##perties
do
##romise
le
bind
##ary
aut
comm
root
##Sc
use
client
##ules
##av
ct
##chem
##ibute
find
##int
format
write
##SON
##odes
conn
##plate
12
##ry
##umn
##tif
width
##try
char
fn
##Def
HEAP
first
##ens
##ose
##By
load
##Info
are
offset
catch
json
##lob
16
db
##uct
fl
##ren
##sg
##uld
status
##ould
src
##ork
##Bu
##vel
split
try
##Len
im
##sert
reg
spec
##ression
##lu
##te
##indow
prev
dec
If
The
while
scope
##tem
htt
view
##ations
##yp
##les
fs
slice
##Url
##Pos
##aw
##ook
25
##inal
contain
util
emit
##ename
##ple
##OR
##ugin
##chema
version
##OD
arr
In
top
##ption
left
reject
##ected
red
##rap
##fix
require
##ake
##tin
##Token
24
##Tr
##tings
height
##mb
##Call
##Child
ab
ol
##IN
ctx
values
build
##Size
##otype
##roup
link
##ence
stream
bo
apply
##load
##ash
ed
##Fil
enc
orig
sw
##ree
inc
info
##Un
##TE
##Param
color
size
##are
##TA
##Arg
cache
##En
buffer
##AA
render
##Set
##ait
exec
html
JSON
11
##ark
##ard
rel
prom
##io
handle
row
##ative
rout
ver
##ormal
##ier
##Sp
msg
##ages
files
run
##Or
delete
##Item
ass
Promise
Re
##ates
##efore
env
##Mod
window
##Obj
properties
page
##erm
##Met
##ann
##Sync
option
prototype
stack
##Width
##Requ
instanceof
children
##attern
##fter
##ant
##Line
sy
mem
HEAP32
##Hand
local
ad
##Length
label
template
##ypes
##red
component
##ther
##valid
##tity
isArray
done
##ments
##arch
##ied
##Sty
each
will
##gn
server
##ension
num
conc
command
schema
##View
fr
but
##ong
##On
plugin
##Ser
logger
##Int
##Content
##UR
##EN
paramet
##At
##Own
##itch
##ell
pack
##itial
css
block
have
column
##Function
##ired
exis
constr
##ocket
hash
##sing
old
over
props
range
##itle
##ines
position
##arn
##With
gener
##me
##led
should
String
inter
must
host
dom
##res
##ower
div
##Case
##ES
dest
##uration
##AN
##itor
concat
##Tag
##olean
##ID
##uctor
##From
es
init
##mpty
##mbol
##Count
cle
when
substr
promise
##Context
api
right
##cript
##ved
normal
##ML
async
toString
cm
##Up
##Start
aw
headers
cal
##End
##Result
imp
##LA
##Str
##ner
names
##ccess
date
append
##Callback
100
##TI
##ia
##Height
auth
##ex
scroll
count
opt
##lar
##For
task
##ibutes
sec
oper
##its
##CK
##ueue
14
found
action
one
##ulti
lay
##Attribute
##line
##lem
filename
##opy
##Pre
http
prefix
any
##Message
##play
only
##Style
##ish
so
int
Type
##ession
address
##OwnProperty
##Date
15
##Names
ign
##annel
meta
##raph
switch
##ox
pri
settings
We
glob
send
##ote
##endenc
##Select
##ual
##ob
stringify
##Timeout
##unk
13
scri
make
##pace
back
##oad
##Offset
work
20
##Listener
##ustom
##au
##idd
acc
##Buffer
##Request
##UL
##cription
ind
pattern
St
##Model
need
##OM
gr
##De
wrap
##ized
container
##vate
##read
##imit
##As
iter
##ive
##gex
##orts
##ager
inclu
table
results
tim
##igh
hasOwnProperty
##ces
det
await
sup
##entif
##ature
entry
pass
project
after
nodes
##Stream
##ict
web
Ch
sort
sign
warn
other
##ift
me
##ute
##Pl
##ubl
##All
assert
group
defer
transform
##Handler
##tinue
##ally
md
##ond
original
before
func
##Head
##Doc
initial
close
mer
##ectory
route
items
##Ref
title
Date
port
##ular
##order
##word
##ors
##Expression
level
location
constructor
18
open
timeout
prov
##ton
collection
rule
##ome
assign
##aht
allow
show
##roller
poin
##ke
##Man
##ication
##xis
mode
##Field
dr
##abled
search
handler
##ek
lang
##ified
##rou
##AL
##kip
store
##older
errors
temp
##Sh
extr
continue
di
events
##Number
##ater
##Loc
##Stat
##ari
service
##ious
##tes
##ouse
##Th
##ayload
extend
br
##Match
flag
regis
##Le
pop
define
##Inter
255
##oun
##iled
script
##low
validate
##con
exists
##Out
##Module
required
##ape
##Trans
##Ap
##Query
##Source
gl
##vert
##ible
ignore
co
per
parts
##ings
was
STA
session
point
resource
mark
##Form
##alk
##erence
##ndle
socket
copy
returns
trim
17
utils
##Util
##iter
chunk
##her
##orage
##ider
##ateg
##ample
##path
##Params
##uth
vis
full
##AR
##OP
##rol
##ipe
stop
man
##ets
now
global
raw
##Client
##16
change
##Char
Con
ev
multi
This
redu
##Component
##ST
##ices
bl
##Fn
member
##atic
##ati
tokens
package
##ref
header
##Valid
display
tmp
image
##Dec
##gr
##IG
##Cache
elements
##ich
##Files
##old
##rowser
##af
##Args
##vas
##Ac
idx
##Reg
##Rec
##ause
cmd
expr
parsed
post
parameters
19
cond
attribute
connection
attributes
##Add
vari
##ters
##TML
Bu
custom
##be
##And
conf
##Keys
##Version
##oid
##ector
##Values
##entifier
##adata
active
ph
rep
clone
##tf
empty
##inition
##Parent
##ready
##Im
26
record
fields
publ
##ED
tot
elem
Com
ag
Un
which
payload
##igger
av
##Sy
previous
##ph
##ding
tab
##SS
total
22
##son
IN
pad
private
##Block
##ott
##plete
DE
expression
does
ang
merge
##ias
description
channel
cap
##xy
##ped
##BLE
dependenc
invalid
##Ext
paths
##Target
##64
lines
##Position
Ex
##Contain
##omet
selector
chang
main
##action
##ources
abs
##par
21
filePath
font
##Lower
##Props
##not
ast
##Method
us
27
https
##Tem
32
##Point
##edia
##Nodes
##essages
##IT
##ottom
##ping
regex
##Fr
##Default
##Prop
clear
tree
skip
boolean
##sor
editor
import
inner
used
##ahta
className
fail
ar
##ET
##PI
##FF
##ternal
##An
##Label
##Color
##eners
some
##Mode
word
##scri
##Top
types
entity
insert
##Manager
li
access
##Inst
Reg
##LowerCase
##Log
##ud
##sp
SY
##oom
parseInt
##Types
##ME
there
modules
##Root
Number
fe
already
##qual
bundle
unit
##TION
##ANG
defined
rules
qu
pk
attrs
##Dep
extension
##ern
##ays
##ingle
##rop
##verse
##Range
step
40
##ailed
00
##Response
##ached
queue
toLowerCase
##point
##time
expected
##ear
##eturn
dist
lib
##ENT
std
##Column
pol
##uage
##loat
act
##RE
order
go
##Container
shift
trigger
##icate
bin
isN
##dir
##Hash
##rix
symbol
support
##cept
##onth
substring
em
##actory
##aded
##atrix
##etch
Cl
##Read
Pro
##Des
uri
##oding
##file
controller
tahta
fix
fin
ng
matches
##ending
##Row
non
##MP
##ocus
##Format
u0
##YP
generate
MA
##ating
hel
inv
##ODO
button
defaults
TODO
ge
##Ed
##issing
success
browser
##Link
##sh
watch
stats
##nown
##Sub
register
##atform
##resh
##Conn
##rite
##Change
##URL
graph
##ures
bound
Set
anim
Buffer
reduce
23
##bser
##mand
##etw
##Input
seg
##Left
##iss
##Stack
##itions
##bar
##Al
##amp
sin
look
##ling
##iven
##Table
encode
##Cur
##Scroll
##rypt
##iddle
pipe
##umer
parser
convert
contents
pe
##gress
##Promise
##Selector
dirname
href
##laration
buf
att
##round
##uch
relative
border
##wd
##Settings
into
core
##uc
canvas
##Spec
##ie
##LLA
##Load
MOD
##Comp
normalize
don
##Properties
##base
##Check
##0000
own
##over
given
save
Add
scale
##ta
##Json
Check
disable
rest
##hale
##Del
##aces
frame
HANG
##Body
##Group
HANGUL
##User
off
ts
##bers
##ayer
TypeError
##anch
##EventListener
SYLLA
limit
30
##reen
second
##adi
SYLLABLE
##ING
exit
operation
##tiv
deferred
Node
utf
disp
##Base
chart
Function
##10
Cont
##Is
ui
##js
##que
cell
##roy
UR
STACK
sv
pkg
##Scope
##RR
##ulate
##Level
##oolean
##ails
Event
##El
##ests
comment
exports
namespace
##TC
##Dis
##hr
##ables
##air
##TED
No
##gg
##reate
span
##enu
may
storage
am
touch
selected
##ailable
charac
include
##Header
EN
sm
chain
device
metadata
##Update
same
directory
parameter
##assed
where
high
mo
##PA
click
##Axis
public
##ization
##Template
##lease
##Utils
##tex
##Filter
##erenc
part
cor
mouse
##Min
flags
##down
Invalid
##Arr
common
##ocol
loop
##ometry
RegExp
##ble
cwd
onc
##Box
RE
round
bas
styles
##trl
clean
pres
anc
##Ver
##clu
##ULE
auto
fill
##Service
layout
tool
selection
##iteral
##cape
methods
##CT
super
cursor
indent
job
##lers
static
angular
##Page
##lint
##iler
##sure
Ql
##enter
CON
##CE
bytes
reset
##urum
##HTML
28
proxy
provide
##ert
##Rect
reference
##ission
##11
platform
Get
33
##ective
Res
To
void
##ideo
bottom
##gin
##criptor
report
##izer
##Ht
rows
##itable
Par
dig
##Prefix
sync
##YPE
setTimeout
down
##pm
##Over
upd
##adius
##TOP
alias
depth
##gram
transl
place
##Server
kind
##Bind
##Elements
definition
##box
##gend
##Instance
term
language
##Interval
##Render
layer
sim
single
internal
padding
bec
##ision
##yn
##ialog
##idden
36
##New
##andom
##AAAA
listener
##Symbol
##OW
splice
##ugh
##LS
##rough
##ancel
##18
iterator
readFile
##ants
connect
duration
using
just
categ
##thing
##Su
asset
##stem
##12
move
gu
##side
##Before
been
##teger
##Pack
##ility
##Paths
##rent
##ted
Return
encoding
domain
track
##ounter
svg
STACKTOP
##Tim
dev
tags
En
sum
messages
draw
final
fileName
##argin
##flow
more
tw
createElement
subscri
##Poin
##Ad
ihale
##Space
Se
rect
##ume
##Command
ID
print
hex
##iddlew
##Document
sq
##Status
points
##ret
calc
diff
##EB
##aterial
##Dom
pointer
##Address
URL
##Max
extract
ready
prep
byte
nav
##Fl
star
##UN
region
##TT
protocol
Web
eval
29
##eep
##emove
failed
##apter
Lo
##Rout
##ground
flo
##known
TH
optional
##Chang
comput
##Image
Tr
destroy
dependencies
##Opts
0x00
stdout
##oo
px
##Option
pan
parentNode
finish
blob
##des
##Paramet
resolved
rece
see
##20
compile
password
created
##Task
##cl
desc
##ution
origin
MODULE
API
##Right
##Next
##ning
##Auth
##very
##itive
space
here
prim
##Scale
##ique
fetch
##Directory
##hor
called
##EX
##gate
##Empty
specified
xml
hook
##pts
eslint
##agment
inject
##wise
##OL
##erences
##aN
Boolean
##ception
existing
ensure
##TH
##Meta
##Bound
Def
org
extra
##Ids
media
its
##JSON
prod
##plic
200
because
tick
img
##estamp
##Seg
##Rule
variable
actual
lat
statusCode
appendChild
##Pr
##bo
##afe
##AG
##Queue
sn
remote
box
##een
##ential
force
coord
missing
##tries
once
Id
dim
##Statement
example
plugins
passed
##ten
##alem
##Per
prevent
##pack
NO
you
addEventListener
Data
##Resol
branch
available
##Sl
##AB
##55
execute
##SE
##Det
floor
##tim
Exp
##Store
locale
##Children
long
ERR
wait
1000
##ffix
cy
cf
##Var
coll
##ade
##Unit
##ites
application
serial
dispatch
34
win
HEAP8
axis
bit
##JS
cook
notif
identifier
##istory
cached
60
##bs
complete
##Wrap
##px
WEB
utf8
focus
##ool
partial
##Output
isObject
objects
iss
##ifier
##irect
31
compare
##EL
##Script
##Hel
mix
##Ind
50
##ORTED
##Get
##eted
random
##aster
##First
##Wh
##olute
delta
##No
dat
For
icon
argv
invok
##ward
walk
them
contains
##Oper
my
##ntax
##ived
equal
##Run
##ixel
role
pref
IMP
operator
isFunction
##Process
##iddleware
##Pattern
slot
##Events
decode
##Entry
pending
##ture
##After
##ck
configuration
##Func
##lif
isString
assoc
##ngine
##IC
0x0
##eklif
chalk
hide
##IS
##tination
npm
listeners
through
tagName
##edi
than
DOM
##We
expect
##clude
##Tree
##ested
control
##ride
##PACK
##ises
##eet
charAt
SIG
username
##get
##ics
Val
##Sec
interval
PR
##ODE
native
##Frame
batch
since
ok
attach
35
dst
remo
##udio
##face
##irc
proto
drag
##Items
separ
flat
##ermission
##Sign
author
day
##Not
pred
##unt
Wh
ms
##itional
export
WEBPACK
##ous
short
changed
character
columns
help
##ptions
##Be
loader
TYPE
##ored
##ld
##Prov
shad
##Parts
##cc
FI
##urs
##ires
cancel
verb
endpoint
IMPORTED
##Stats
Ap
##Bytes
##Schema
owner
An
und
video
##URI
##App
##ged
Sy
##roups
begin
##ched
##Rel
##AME
cp
edge
##Idx
##allback
every
delay
NON
##actor
##tc
##Constr
##Attributes
##iti
vertex
##gb
##Declaration
margin
xhr
##roke
cr
router
loaded
##ason
provided
##Float
##Lo
our
month
##tices
##rid
deps
trace
components
png
##ways
section
##Full
includes
Vk
##ific
##Open
##35
##Fields
rot
Create
##ges
signature
Log
##ities
center
ip
obser
commit
material
##andid
##ifest
none
##Co
category
##Last
##Regis
Mod
like
##ernal
provider
classes
##Flag
64
##az
##ency
##ators
background
defineProperty
##ero
##ply
bar
fire
git
##utton
feature
destination
##rec
segment
ws
##UT
##Mark
program
##ouch
##ank
##rary
##ging
##Emit
##Modules
44
##atio
evt
##24
escape
##Active
descriptor
worker
##Msg
##Rules
resp
##Plugin
##ollow
##Dependenc
##entic
##vices
DEF
SE
##uid
##Prot
##Listeners
anchor
##Control
##eded
##so
##sible
##Vari
enable
expand
##Argument
strict
##cent
37
##ynam
poly
Sh
##ared
##Async
##Num
prec
Requ
48
validation
wrapper
##Build
##Changed
##ULT
geometry
dbQ
##quence
##Regex
Ser
sure
##If
progress
Class
added
EX
##tip
##min
##Enc
keep
##sc
##nect
enabled
##Record
dependency
##Work
##ibling
##ithub
HTML
MAX
inline
##Location
##Br
setup
legend
##Only
kp
##tp
translate
real
##ongo
##Button
##light
getAttribute
##redential
##osed
grid
File
want
enumer
##pload
##ma
##imum
filepath
year
##Html
##Project
##Vis
side
handlers
put
binding
38
##Conf
declar
callbacks
changes
##etween
colors
##bu
theme
transaction
##000
##Extension
PO
##25
##lose
##sl
##Parser
animation
disabled
##etwork
hidden
factory
On
##Action
setAttribute
lower
SIGN
##Test
ctrl
reverse
unique
0x1
charCode
##Lines
##Upper
##Connection
clos
drop
##Title
grunt
UN
vm
##rect
##oder
##upport
integer
repe
profile
always
follow
NLS
##TER
##TR
##Back
he
capture
##Cell
binary
without
##Definition
allowed
dialog
##UM
##One
ce
Pl
##ists
##Errors
texture
abort
PA
##Dr
##99
##lec
matched
##iform
##Err
adapter
##Binding
timer
updated
kalem
##Down
##Click
##Factory
exist
listen
redirect
github
matrix
install
##Channel
##Current
##Contents
timestamp
pair
##imal
##Helper
##ump
eventName
lookup
addClass
refresh
models
writeFile
differ
distance
##tn
##plates
##ples
docs
##ffect
##iting
##AULT
##atures
##pha
they
##mbed
##rame
functions
##eps
cannot
marker
supported
needs
##len
DEFAULT
##sers
##Socket
##ze
##LO
##Mem
direction
lastIndex
##Ret
readFileSync
##SI
ERROR
Nm
##CH
instead
##Imp
visit
##Word
##Window
folder
JS
database
rgb
##Tick
##Local
isValid
##Transform
condition
##Tab
##Part
##Dict
##mt
##Route
##Coord
annot
moduleName
reason
ids
##80
transition
##Month
retry
verify
topic
agent
ns
##Selection
256
rol
viewport
renderer
##Resource
##Entity
##Anim
enumerable
NODE
##map
##Search
##14
Core
##ical
THRE
email
##vers
##Iter
##Div
45
Col
wid
##Port
##AM
##iers
53
##Fe
##run
OP
Remove
##Storage
zip
##fer
##md
absolute
##ulp
##Collection
##derr
39
radius
##Ass
##15
##redentials
##Dist
details
##formation
##aining
##iron
##UpperCase
##Provider
##Identifier
##Results
associ
##Equal
##tract
multiple
##medi
Map
stroke
Sc
##Bar
##uction
suffix
basename
##cket
mapping
doesn
sample
##Matrix
ua
##19
stderr
##uster
isNaN
IE
existsSync
did
##holder
##Headers
42
getTime
##ById
history
ii
##andidate
##type
##Lay
##df
##entation
comb
deep
##FilePath
cfg
##Ag
##Comment
##Di
##rypto
respon
align
LO
##ves
invoke
Module
peer
special
##ross
writable
58
emitter
foo
##CTION
##oriz
rev
##ixed
directive
removed
##key
idler
De
##lay
Content
##UG
toUpperCase
cas
entries
##reg
##used
links
override
Component
Util
##Mouse
inher
##Undefined
fragment
##aly
ans
gulp
patch
could
lead
##Normal
##Layer
configur
##tical
##fin
tasks
secret
##VE
##amed
two
pathname
shape
also
mk
mixin
middleware
teklif
##Folder
##Access
subject
actions
##ither
related
warning
##30
perform
cookie
46
dot
##amer
##ategy
##Api
##Points
##atal
##alled
##Enabled
account
webpack
starts
##ances
engine
ceil
##Pol
gen
parseFloat
exclude
##Tool
loading
##shift
##mediate
resources
inside
pid
##Font
##aint
##Orig
again
##Track
safe
possible
release
commands
otherwise
##node
outer
##DB
##entity
isIn
publish
##Red
##Found
accept
##auth
All
alg
navig
##48
amount
##mary
dimension
##Literal
##HA
visible
jav
##ithm
##inates
##ether
series
##cessed
261
tx
comments
uns
##Hook
##ority
##Controller
##awn
querySelector
unknown
##Package
AN
io
sched
##Progress
external
##Texture
##ailing
##Emitter
kurum
##lee
##lobal
##ggle
oSettings
##Can
COM
##Order
##app
##ually
##ese
##ours
##tu
##Registry
datas
56
bits
master
charCodeAt
menu
sql
keyword
zoom
##US
47
##ended
##acity
isS
routes
##ene
##ironment
system
running
angle
Use
TO
prepare
thing
returned
##just
nodeName
hostname
variables
##RegExp
vars
##exp
flatten
circ
##oy
##orter
##rt
declaration
##onds
your
##err
##itespace
Up
promises
callee
calculate
constants
##RI
##anges
##orithm
pixel
sil
##plicit
##Close
##ural
##Host
filters
It
##Lang
##Limit
verbose
##Dependencies
##less
digest
Hand
##pos
unshift
predicate
groups
##pol
##Day
uniform
CH
##Bin
##ouble
cs
52
counter
##Year
generator
##Parameter
v1
##gon
##17
##utable
sep
NAME
##Expr
##Touch
##Styles
##Metadata
computed
Trans
As
upper
initialize
##place
##Are
##ria
lc
sources
##list
alert
repeat
##tives
nodeType
##Ar
##EY
play
os
normalized
##ike
ww
##Multi
##ights
tooltip
lock
##AP
##erred
crypto
sha
##Prev
pt
cho
simple
nested
##Wrapper
elm
##Inc
##MENT
statement
GET
pick
accum
primary
network
##Locale
innerHTML
##AD
##40
dele
download
Qn
library
x1
##IL
prob
mask
##icy
exception
##link
72
##API
##Tags
43
du
##Src
extensions
Returns
tile
49
##iod
##FileName
##Tokens
iterate
##AT
CSS
jQuery
classList
pages
##Ct
##67
##ely
methodName
##Cap
##Graph
zero
##Dim
lex
##Pri
##ogle
base64
##pr
repo
##Write
optim
preventDefault
mock
##hav
##da
##ATA
##ving
game
strip
80
##inate
##orizont
##Qu
##irt
attrib
##tivity
Request
SU
recurs
##utes
white
##Layout
DI
##roid
0xB
##Css
##izes
being
manifest
##reshold
##Aut
manager
Token
##ls
car
declarations
##n1
fixed
##WS
0xC
edit
##Details
##TTP
##agger
childNodes
coun
embed
dri
##Pan
builder
implement
##DER
propName
sap
##Menu
##peed
resize
collect
refs
uuid
##Segment
td
specific
avoid
correct
fullPath
##havi
##ipher
overflow
newValue
based
##to
highlight
sav
##Radius
evalu
##uring
times
##Web
##orizontal
mut
upload
templates
##Columns
##ESS
57
##Bottom
##ynamic
cos
uid
##fil
54
KEY
##UE
##emo
literal
sourceCode
what
defaultValue
##Done
locals
Default
enter
members
pers
##22
react
180
separator
notify
##ATE
sink
##kit
seen
requires
got
##hip
##vable
##Parameters
bro
##jection
subscribe
struct
##sertion
##Constructor
bid
toggle
##gnore
##iber
##Methods
words
React
##expected
##amples
regexp
##board
www
sent
mkdir
Not
Ref
##Focus
##DF
bounds
##Ge
strings
checked
Call
##tl
##ii
##irtual
between
##cle
thisArg
##amera
##rie
helper
pow
##Media
##amb
##Env
free
##AS
##Init
sem
##Sibling
55
isEmpty
login
Valid
den
##ql
relation
##Canvas
deprec
##iction
addr
parents
chars
d3
##ux
##rome
validator
##TS
##tities
##ections
Sp
##Session
reader
inherit
both
Key
Rec
##Bl
##Loader
##Success
##AY
determ
##18n
##Operation
41
float
sk
##initions
PI
##Obser
##LI
either
placeholder
u1
##acing
runtime
registry
gly
pub
##code
##aced
player
##Complete
67
enum
labels
##ram
##Ratio
##36
##Display
kn
##asure
##Shad
permission
##ulator
subs
##38
##Indent
500
tra
remaining
alpha
##Selected
transport
df
insp
##Pad
area
incre
HTTP
plain
plot
##esh
##ily
needed
calls
decor
##lex
compute
##RT
##ech
slide
removeClass
reply
supp
##Editor
59
##Sort
shared
users
typ
isUndefined
##eme
bucket
##Return
##ms
##mark
##Create
getElement
serialize
##Area
bel
##This
Met
##IZ
##Depth
vec
##Ctrl
##Step
snap
ec
##tt
##int8
ele
mon
##Attrs
helpers
via
cluster
##ueries
cross
seed
##ov
##Lib
##Asset
Note
txt
would
##Messages
##aniti
##Ph
##Js
##apsed
units
##gh
reduc
##Agent
##Animation
ve
indic
agg
##Gener
##anded
##ploy
propertyName
AST
audio
low
##iver
##cap
##jax
##odash
##estor
cert
##CSS
contentType
views
##Rows
66
##aiting
##ibility
requests
##Uri
##Pointer
additional
redis
##upported
Al
FS
##ses
##pro
##oints
within
compiler
attem
Model
eas
sig
site
##stan
##ilities
weight
Pre
##jmp
setting
##Handlers
##plicate
compar
room
information
sequence
##Vars
bad
rad
##till
isF
numer
ends
references
userId
##tics
##eler
compl
adjust
i18n
blue
##Timer
##Assign
##ectives
edges
Base
analy
##Builder
fallback
##Initial
discon
##Ready
##Delay
different
ll
90
ques
##VER
##finity
nb
##Chunk
##Comments
gre
occ
##ness
##Ang
##2D
##Proxy
AL
Make
##gl
##60
##write
##ense
stand
##Chain
delimit
blocks
##mutable
tests
##33
these
##ification
algorithm
List
ps
##ories
generated
EV
vararg
##uler
fieldName
connected
environment
##Visible
yAxis
steps
matching
##Mapping
##Global
spawn
##Debug
characters
later
lodash
pool
flush
Entity
FR
Im
extends
quote
##Desc
When
85
##Configuration
ax
lon
##Domain
##ym
versions
te
##Mask
Ext
##igr
processed
asn1
relations
maybe
NOT
User
yet
##Dest
##Filename
XML
scripts
pi
direct
##annot
##Deep
received
##47
closed
##shot
tm
authentic
bund
##Deps
Do
##gative
##Duration
##Objects
##TY
whether
less
clearTimeout
vertices
##Ne
##Job
indices
Handle
##Custom
##Const
nothing
##Matches
Yk
##no
pane
##Variable
##ful
##Remove
too
percent
summary
hooks
##pc
proc
selectors
EventEmitter
##URIComponent
##erge
##ecess
identity
##EXT
##Distance
##ips
##irm
##Trace
##NS
modified
##Exists
##Arguments
Update
Cannot
mongo
schem
##Like
ctor
shader
chunks
gm
##Device
63
Message
##Fixed
##Counter
urun
##Sum
##ability
until
Config
startsWith
Option
AWS
##eer
##ough
##tify
restore
modal
filtered
still
Infinity
##Transition
take
##ecting
##amel
128
##Logger
segments
sset
##Term
##hs
trailing
##abilities
655
Int
##Fiber
##card
tod
##Handle
sorted
##Copy
##plit
##SC
##havior
p1
##Elem
##head
isDirectory
arch
credentials
y1
##iders
##Prototype
##Diff
answ
##28
recon
wrapped
Unknown
under
dt
yield
##bound
##alc
##rowsers
alt
##arih
repos
##Alias
##ambda
TR
latest
Only
65
Read
##Move
##Reference
ca
onError
127
##Place
##Drag
END
way
##Raw
baseUrl
##Loaded
75
Text
pin
##Pass
getValue
##Span
##olders
Comp
##Pair
decl
repres
##Segments
shadow
VAL
##ffers
##Cond
##ToString
##log
extname
best
##STA
arrays
scrollTop
screen
##Bundle
assets
saved
Element
##aunc
##leg
##Classes
packet
##Angle
##Dig
##ores
stage
isB
##Flags
##sum
##rientation
##Descriptor
Syntax
##Prom
layers
##Import
VOW
##lections
See
##ecessary
##ik
throws
Cre
kv
##let
their
services
replacement
phase
68
##Publ
incom
tak
##arty
green
identif
##aints
THREE
VOWEL
##irror
##Nav
##Legend
issue
##ertif
memo
##by
##ullan
51
uy
##ian
##EC
##MS
##QL
##Exception
priority
##bars
Kd
saniti
##EF
##Watch
##endar
signal
##Components
Query
##hron
##IM
iframe
mac
##OT
##UInt
##Http
der
##Anc
smarty
rs
##aj
##ascript
##puted
states
syntax
##DOM
##44
##illis
##QU
##Hex
##ssa
delegate
ss
ul
##Non
readdir
##ahtar
##AAAAAAAA
rotate
76
##alt
##plied
POST
##bb
scan
merged
configurable
##Sn
##Internal
scene
ek
resolver
##stract
swagger
aria
##bul
score
##Post
##inator
70
##hing
##Exec
formatted
##Functions
Stat
detect
##Cursor
##Vertices
##Loop
cc
##OS
##sel
modulePath
dynamic
effect
oauth
##eter
REG
TEXT
##CharCode
##Region
##stanbul
Options
how
mag
might
deleted
interse
following
PATH
##Cb
opacity
coordinates
candidate
compiled
mean
##Resolver
leading
deprecated
mime
##points
forward
small
polygon
istanbul
##GL
##orders
##Member
traverse
inspect
Path
##Sep
##Factor
FILE
##Auto
You
dx
v2
##Require
Other
vector
face
##TF
##erved
##ination
conv
##stat
cls
##leri
Can
ptr
promp
failure
omit
##ns
scop
inputs
pag
##ATION
means
injector
##Side
##29
##orting
##otal
##omething
seconds
Server
##itel
Find
google
mid
configure
RES
runner
memory
69
book
##Fail
ignored
ear
tre
##AC
##mon
##Has
##Pref
widget
##Permission
##DI
about
##Renderer
##tit
targets
ENV
hot
##Single
##ries
expanded
popup
registered
Mn
sd
x2
##13
##esting
tail
##LAY
##Batch
##orth
Value
##int8Array
##Ast
##Abs
##icker
double
##AGE
99
STR
##eta
devel
patterns
named
##Sources
##orld
nextTick
##Units
xs
##verage
0xFF
Client
App
##Geometry
above
happ
##PP
##umb
spaces
Failed
isn
##icode
interpol
projectId
62
oid
currently
tmpl
Ac
Dis
Run
mc
##Keyword
slug
##ubscri
Expected
seq
mul
p2
##Us
contract
##Vertex
65535
gp
##angle
encrypt
##System
##Rem
attrName
0xD
##Interface
SELE
##Language
##obile
##Ctx
NUM
qd
rename
modifier
##TagName
detail
##Edge
Parse
##VG
##lleg
##mount
animate
getElementById
dy
hover
##UTC
##Me
cli
##Parse
altern
##llegal
production
known
speed
##Description
Det
Doc
vc
documentElement
HEAP16
finally
##Inclu
Load
##ECT
submit
flow
records
##spector
cpu
dimensions
##88
explicit
metr
##Rece
##raw
maximum
least
admin
EVENT
##rew
cyan
browsers
##actions
##Computed
encoder
##Branch
##OC
basePath
##Fragment
IS
##Break
##trict
such
determine
buil
writeFileSync
lin
Ed
##other
##ABLE
##allow
firstChild
##Origin
##oud
removeListener
boot
##Tmp
##acts
##ifiers
##INE
evaluate
question
##OUN
issues
lastIndexOf
Le
charset
interface
delimiter
keyCode
many
features
##Old
##45
clock
##Stop
week
rendered
bold
##37
inf
sourceMap
rx
##FI
##69
##Gr
retrie
modelName
LOG
FUN
newNode
hint
##Pixel
##urity
##ulated
##iles
##ici
##Static
vertical
##Theme
channels
Ad
Block
404
panel
##Bounding
uniforms
Auth
##INT
webkit
getAll
processing
##Defined
present
##buffer
Op
hi
##start
##value
execut
measure
##Marker
Gener
camera
##Rate
##ured
frames
State
finished
days
##ides
getType
eventType
Param
Symbol
##Pres
##tivate
getC
##Tasks
lcssa
most
##data
instances
persist
babel
even
CR
Form
##orph
requested
bindings
##Byte
construct
Command
##ictionary
initialized
##Iterator
##Feature
97
##49
##ench
##uture
note
forms
moment
readyState
Name
##case
##bl
##alf
##itory
0xff
##azy
##256
AND
##Payload
##way
getElements
##Directive
Missing
Uint8Array
ranges
##amily
##Cons
Code
FA
##view
directives
##area
View
##inish
containing
##Dialog
##Null
OR
ON
bug
light
##IE
##Ms
##ism
logging
##Acc
precision
Status
400
##dr
isM
##aps
below
DATA
migr
##Sw
##Borders
##ocom
sqrt
starting
cipher
authorization
##SION
y2
toArray
overlay
Could
US
##alle
##plication
urls
Identifier
##Codes
##inger
entities
ES
PRE
##DD
reload
isFile
constant
fromCharCode
##error
##aunch
77
rTC
##cp
##Worker
cases
ARR
er
dataSource
slash
removeEventListener
aliases
##caped
95
isNumber
##Entries
##ocused
caller
memberOf
Graph
##Em
deploy
another
##atalog
Vector
dirs
removeChild
numberOf
##Namespace
schedule
SELECT
ratio
##move
started
##Overflow
zone
##uck
##rides
##hronous
##AE
##Chars
Build
encoded
dataset
completed
ajax
numbers
##ullanici
prompt
WH
eq
noop
##Direction
period
recursive
bg
##als
textContent
readable
autom
##Screen
Skip
##host
##Cmd
##geo
jsh
depend
DEB
threw
##Rep
##anner
tarih
##ASE
##39
quot
unc
##use
Dec
##ued
##EM
##ava
116
##Validation
##ClassName
standard
##allel
TI
UI
hour
xa
##Ab
##CC
##acy
##Annot
stylesh
ngeo
son
##eel
##my
##Warn
##anti
0x7
minimum
##Upd
##cast
ancestor
##ertificate
Rout
horizontal
something
##pect
##bed
calling
##Req
##Comple
##string
##ORT
##Callbacks
##illisec
DEBUG
88
##Inner
sym
attribs
SUB
##STAN
##CB
shell
buttons
javascript
Loc
fmt
##ackets
##EAD
images
decimal
##Required
included
##Icon
##ird
suite
installed
lineNumber
##Strategy
##off
##wrap
##acer
##iteria
PAR
##Audio
##States
##aused
policy
accumulator
##HR
##utter
##eloc
ic
##27
##ather
getter
##endor
##EST
cookies
ie
##UI
##erve
disc
##Bounds
know
61
were
##High
statements
FUNCTION
##ember
bool
works
##Encoding
getNode
##ITOR
##omp
cleanup
##Signature
Let
##Es
getProperty
##apse
jshint
waiting
##Av
##ude
##ents
##ases
appName
protected
##AND
symbols
##Align
encodeURIComponent
Otherwise
##Video
##Inspector
formatter
getElementsBy
rng
vnode
##gen
ops
##icro
getB
instr
md5
OPTION
##ajor
##change
warnings
phi
##Prim
bul
fd
##26
##GB
stored
consume
positions
immediate
##Dev
##agation
##Integer
mapped
STATE
todo
##iration
whitespace
0x8
##fox
tabs
moz
##Padding
numeric
##urrent
orientation
##fill
##Kind
writer
108
##elocity
##Wr
##inder
##URE
##Suffix
increment
pull
que
##Pop
##Sel
cols
descri
touches
Don
##BE
isPl
##Buf
expressions
##Getter
cause
##ceed
##Temp
camel
sender
##50
##Labels
##Hooks
duplicate
87
##olid
##Delta
front
##IGH
dropdown
necessary
rate
##xx
##zip
##regate
annotation
92
##ister
behavior
##StatsDict
piec
pong
##History
0x4
pret
##self
mw
never
trunc
definitions
##oss
indexes
subm
Initial
rotation
##Snap
74
CLA
DB
So
hit
express
##ucer
digits
tracker
association
Su
Vd
lambda
rm
##pear
##icense
##antom
THREW
BU
Fire
RO
forge
anahtar
scrollbar
disconnect
FOR
net
pay
##Actions
threwValue
78
Red
ix
mm
threshold
anything
mount
sass
##bk
scal
arrow
##Dimension
##seud
exact
imports
##ectories
feed
Ass
##oi
##VAL
##IF
clip
sugg
Plugin
driver
##Promises
math
qs
ut
##adcast
##strap
##Resolve
##IZE
virtual
startIndex
execution
silent
occur
t1
##izing
rootScope
handled
##Addresses
equals
73
getR
##Separ
##doc
##OG
sets
##Declar
WebInspector
##late
##XY
upgr
flip
REGEX
82
CONF
NaN
iv
##fs
##KED
##Recorder
96
##ycle
preview
Start
##Manifest
##Begin
SC
live
##ery
getFile
attempt
Ne
kill
uv
digit
etc
fc
##work
tok
moduleId
updates
##Seconds
##ubscribe
##ra
##Serial
##Charac
packageName
First
##aries
operations
populate
##Transaction
##Timestamp
denom
sibling
##Total
##olog
packages
aws
visitor
##Percent
FROM
MIN
##AF
##Whitespace
##Secret
##Pane
##Groups
contact
adv
visibility
Convert
notification
navigator
glyph
Document
salt
##book
##Grid
##Profile
##TIVE
basic
##ova
79
##Att
categories
reducer
py
##text
##Chart
startTime
##Replace
##ookup
EXP
middle
##Peer
matcher
working
84
pause
##hes
##unctu
watcher
Allow
Or
Please
cut
##zone
##onym
recur
##Without
Ht
VER
kullanici
##Browser
android
problem
jq
##ison
##add
plural
specs
Inst
##ellow
criteria
##Private
CKED
ELE
mat
##Split
CKEDITOR
At
##nected
##Ignore
##aml
clon
deg
##ordova
##rollers
##atis
##Relative
directly
CLASS
xy
##BC
##Show
responses
##orthand
divId
cells
bench
ob
squ
tip
##arge
##active
negative
##Propagation
converted
cat
factor
##Lock
##tration
exclu
onerror
userData
##ryption
Found
Try
dash
hist
##Teklif
##AH
##IP
##ixin
##Series
##ULL
ao
r1
##ys
##Ui
##Zoom
71
BY
Time
Work
##Save
##Agg
##ker
0x2
##clus
bb
##only
##arr
toFixed
compati
115
generic
stdin
##Shader
##mem
##cut
##etter
##ummy
##Clone
120
usage
Property
89
##uff
isC
##imple
fileContents
nextSibling
rejected
##Operator
##paces
##respon
primitive
setter
creating
tableName
##Week
closing
##Engine
getCurrent
connections
regular
##ounts
ln
sizes
##stream
getToken
##allet
##outing
iteration
Fe
Window
##ully
##Sequence
CONSTAN
incoming
ELEMENT
SH
pdf
sur
parallel
##ensitive
##ookie
escaped
Constr
##Disp
##illiseconds
Is
##Role
##Native
##ince
maps
statSync
Deferred
##ocomplete
Source
##66
conditions
Spec
##Use
resume
Stream
peg
##OWN
t2
##ocker
##Unique
##Struct
repository
past
##nection
##Mirror
##Commit
There
preset
structure
gpf
gest
turn
##He
union
##ildcard
##Ret0
Attr
##Pages
##Program
rendering
markdown
confirm
##Immediate
##Public
fre
proper
displayName
##Delete
##TCH
##Changes
Utils
##seudo
xAxis
##Margin
##quent
clients
##Adapter
during
ym
##Round
0x3
##ube
isPlain
SER
##UID
##Material
##Middleware
##adient
hasClass
currentNode
##Colors
MS
gi
##Cre
##Center
##OF
##Off
onload
dirty
##Partial
##ipp
itself
textarea
##Allow
Unable
choice
##Absolute
Cap
Line
Vue
##itten
nodeId
currency
##Notif
SIZE
lab
sen
ttl
##vok
modify
##Export
##ERE
tempor
NOTE
##Binary
Ab
Float
kul
vendor
##Candidate
##lear
getName
##acket
extended
leave
memberof
product
##Slot
java
##Observer
Method
half
pc
##MD
endsWith
ful
##LON
Store
uses
exported
getElementsByTagName
btn
##Compiler
card
well
elt
frag
##Links
implementation
98
yellow
##Defaults
closest
91
ATT
Sa
Sub
ra
sName
##oice
##go
##23
##76
##uple
transp
1024
##StackTrace
RED
priv
##ares
##amm
correspon
observer
BR
LEN
trust
getDate
##Clos
checkbox
##Completion
SET
fast
license
##ClientRect
##Edit
dispatchEvent
pairs
Mongo
Render
UP
compress
assume
circle
##avaScript
lt
u00
##Bit
##erce
typeName
classed
compos
immutable
##Enum
##Help
tpl
##iation
##kg
##nce
##sec
ekle
bower
tempRet0
##Reader
Process
visited
Custom
TAG
fatal
ttf
##EG
##anization
##PrototypeOf
81
oth
##01
##JECT
conver
dataType
##tude
alternate
lazy
##Send
##hal
##oused
buffers
Const
Control
Ge
bi
bf
cach
da
mx
##eb
unlink
preserve
Logger
heap
300
Per
gt
queries
##Bus
getUser
##TEN
collapse
happen
isPlainObject
Cache
Del
il
u2
##oj
rele
##Coll
constraint
associated
##ousedown
Imp
zh
##Finish
##eni
inverse
##ences
reg2
overl
##aim
##eets
userAgent
##Requests
prepend
combine
OPTIONS
Str
bot
mak
##IR
##Categ
invert
transfer
##Subscri
PROP
##Dependency
against
bundles
retrieve
##IGHT
And
##filer
##erial
tri
##FontSize
vec3
snapshot
kvPos
bootstrap
future
np
##unce
##ications
security
privateKey
insertBefore
Database
roll
CONFIG
##Kalem
ortc
##lector
##Arrays
localStorage
Me
Oper
Pr
qual
##uce
##uages
##Opt
##Strings
##ticle
101
pageY
##Core
getBounding
strategy
105
##Define
112
whiteList
sanitize
tex
114
##Connect
##Packet
##FullYear
VALUE
##OUND
WHERE
ka
##ever
chrome
setjmp
chartSpace
##Draw
querySelectorAll
relationship
##onymous
chartSpaceScale
86
By
stable
tokenizer
develop
contr
parsing
##ITY
invoked
##Extensions
readonly
rgba
reg2mem
durum
fall
##Merge
wrong
##Common
checking
decrypt
yh
##fully
##ane
##icies
123
walker
83
tn
##hook
##db
##Filters
##Minutes
CONSTANTS
Gd
bbox
##Border
getParent
outputs
leg
leaf
publicKey
receiver
##Indices
controls
Service
Scope
##Phase
big
mail
rank
isBuffer
getData
sheet
##ERS
##Services
black
Unexpected
Resol
supports
setjmpTable
pg
##Joint
##lean
specify
110
##ressed
actually
receive
navigation
##Generator
##Assignment
aud
hr
rc
##Used
##orization
##ulation
##itude
##oded
deal
pageX
Exec
mongoose
01
##ised
defaultOptions
resolution
##ively
##Transport
blind
country
archive
automatic
93
ball
##pings
comma
##Routes
Table
##YY
##77
asc
##print
stylesheet
fp
##tle
##Illegal
##Inline
outline
0x5
subscription
##Condition
Copy
SHA
pp
r2
getText
consum
##Reject
minutes
##Viewport
blur
MAP
tools
##screen
ARRAY
##Push
##Queries
##eff
unused
requestOptions
relativePath
##regation
##filled
SP
Task
oThis
##Hidden
##Credentials
##isting
functionName
##Variables
footer
broadcast
indicator
reconnect
##Escape
94
Callback
finger
##ks
getContext
Errors
##Views
Hel
##CON
those
oldValue
monitor
scheme
Enc
TE
UInt
c1
##Pipe
##enVertices
chr
##river
unexpected
##ourc
handleError
addresses
TIME
Ver
gutter
##fn
##uz
##tid
getActive
##ToArray
backward
annotations
treat
pretty
##cha
positive
##Commands
roles
readdirSync
built
COL
Over
READ
##Tw
##21
getS
##ands
##ibl
alloc
##Loading
##Poly
SAB
SVG
Wk
jw
##index
##sequent
getLine
throwError
messageId
##Play
arity
team
scopes
dd
et
##Amount
##65
##ints
getId
Strings
peek
scheduler
Transform
metrics
##Annotation
SABIT
Zk
h1
pm
##84
##oring
replaced
checkType
editable
overwrite
##ComputedStyle
Tem
world
##Db
configs
offsets
111
##Refs
##erenced
byteLength
CoreIllegal
##Password
##Invalid
##ught
ticks
End
arc
equ
hm
##rency
##SA
##rott
##verity
whole
outside
##Dirs
linked
swap
partials
Debug
##Destroy
executed
##part
##cs
0x80
appId
##Cols
sections
##Refresh
INF
fixer
Response
respond
##Previous
Validation
aggregate
answer
cop
##Mock
getPath
##LETE
##32Array
##alculate
Pol
ping
##FS
##here
appear
##Many
blank
##Constraints
ring
##Drop
##onts
consumer
##Resize
comple
##Dirty
##ORE
##Sheet
unsubscribe
due
##dom
0x11
117
150
terminal
interpolate
sonuc
cloned
Fl
pur
##ee
##Effect
##Ws
##ons
##ilation
gets
atom
##Separator
Em
TYP
##3d
phantom
##Scrollbar
STRING
kitch
##Hours
##oft
logs
104
##aving
ember
##Alpha
##Remote
Go
New
crc
rhs
##orized
addListener
dirPath
compose
responseText
##Plugins
kitchenVertices
Ng
mtime
##las
##Xml
##alth
projection
apps
##ogn
documents
##Positions
circular
authentication
Optional
CA
OK
##ahead
##Tri
unless
##ariant
##Threshold
##HttpRequest
Open
bc
hours
x0
ins
##Stage
childNode
deserial
##Score
levels
##Compare
##Coordinates
Must
fun
fake
##ateway
getItem
##Report
supplied
##Times
cycle
CHAR
optimize
Write
rand
vi
##96
##oles
syn
upgrade
##Dispatch
Media
sing
tb
##bit
uni
shard
##Exit
Fil
c2
ep
fold
mesh
##Between
##Btn
calendar
stopPropagation
##Any
##Runtime
choices
##Constant
FLA
Main
Range
##zer
adding
handling
STAT
recurse
AR
a1
jd
##orrect
##ogram
##TextNode
##ensor
streams
allows
datasets
servers
107
Resource
PL
hold
major
routing
##tor
##onical
getOwnProperty
linear
checks
getBoundingClientRect
cmp
##ilg
getM
keydown
controllers
clbk
pathTo
applied
good
Dom
Sw
fj
##Sent
##ars
restrict
unicode
##afari
WebGL
Dir
cd
mousedown
zA
##oper
##ced
##query
109
clientId
##References
bulk
##ology
Windows
gesture
Access
CT
Link
Pref
dates
ff
s2
sce
newline
##Insert
consider
##Validator
important
difference
typed
isP
##osal
103
signed
##Bindings
Emit
Inc
dj
##IST
##Bits
##Ranges
##70
##ina
##Inject
minor
guess
guid
##Optional
##Proto
##Words
##Structure
##lib
##ansion
locations
##Enter
accord
brackets
Parser
devices
branchName
##ABY
attachment
TYPES
pot
##bind
##OU
getComputedStyle
##cripts
##LEN
formats
##Platform
Connection
fontSize
Gets
Mc
PDF
cast
tap
##Section
##Vector
##Dot
##tition
##External
PRO
##Channels
##glify
##Anchor
dummy
family
gme
rtn
##for
##Typ
##ky
##Horizontal
activity
##Resources
processor
##Deferred
Inter
##Matcher
##00000
##PACE
##iblings
Vari
##isi
getP
directories
board
interf
BO
nd
oct
##TYPE
toJSON
##Conc
selectAll
globals
cx
docker
##istic
##store
##rees
snipp
pixels
tiles
##ric
##Fun
##rocess
##apes
##Prod
Ensure
GL
hy
##79
##XML
getMonth
keyboard
instanti
confl
everything
##Original
##Character
##ABYLON
cloud
##achable
##Shadow
age
vs
##ital
expl
setInterval
##losed
102
##Definitions
146
START
freeze
answers
STATUS
BABYLON
focused
rt
##Sample
##mask
##Card
##OUT
##58
onay
objUnit
complex
cssText
conditional
accessor
dragging
identifiers
immediately
sol
##ival
##Rot
##enames
near
Chrome
##span
Reference
certificate
##tain
thread
isDefined
sprite
intercept
iteratorNormal
##Period
##Slash
iteratorNormalCompletion
Big
Test
UTF
##ACK
##Fetch
##Eval
##icient
##Urls
##pared
revision
Http
ssl
##pting
trip
errorMessage
impl
##tine
apiKey
backend
INT
##Edges
##Background
glyf
Pos
bol
##Tail
currentTime
##ODES
##Prec
waitFor
FIX
ALL
norm
rb
##ali
##Information
##Indexes
##ighb
observable
Match
MAR
Obser
##Support
##Lookup
##col
elapsed
minim
##Validate
tables
##Overlay
##Policy
iteratee
##Available
##Skip
##ably
except
aspect
serve
compact
126
##AAA
localhost
workers
webs
postMessage
##umeric
dispose
subscriptions
Save
b2
##gers
##34
##zier
inte
##ifec
##Exist
opening
diag
##Decor
Collection
DIR
caret
Multi
Socket
Vec
##pend
##UB
##Gl
##alendar
##achine
ask
letter
modifiers
125
##beat
BASE
micro
##rase
##ners
##inary
ack
##encil
overrides
##parent
ordered
ME
##ract
##nos
##fc
##Tx
##Face
codegen
sys
coverage
reporter
failures
intersection
##Received
dial
sr
##info
things
##idget
formatting
Replace
##Decimal
restart
easing
schemas
automatically
IP
Matrix
Pass
##Room
##Join
reserved
setHeader
scr
##igned
phone
nonce
cred
fit
launch
##Sizes
##BU
##ength
logic
preload
##LED
minute
##Docs
Prov
embedded
##Navig
pseudo
##ainder
##WE
##Weight
##Inf
##Added
keywords
Image
Brt
DIS
ech
holder
wallet
##med
getKey
getConfig
curve
rootPath
118
113
adap
##Into
secure
Stop
##atitude
Uns
ENO
platforms
performance
mutation
describe
corresponding
Out
Point
##Kurum
##ın
getPrototypeOf
newData
logLevel
writeUInt
defered
markup
fillStyle
SS
give
hset
sid
##obj
##Tile
##Vec
##AV
##andbox
spin
readOnly
offsetHeight
##overy
decoded
##ATOR
##itelist
##clusion
Man
Now
##gable
##tree
##fr
##lize
##Cookie
##Go
seek
currentState
##ORD
renderTarget
detected
##Short
ownerDocument
combined
duplic
FLAG
Messages
wildcard
##Mixin
##aged
arg3
##versed
setState
##ByName
transformed
##Disabled
##Include
CODES
Ignore
##lass
##Once
##42
##GTH
##Zone
##ones
fore
windows
IND
placement
##Resolved
Color
Firefox
MESS
##ALE
##Lat
##bility
##ini
retval
getFullYear
##InProgress
loan
expires
statData
locales
Tool
preced
development
1e
OLAY
a2
bs
dl
##Book
##inite
##asic
clientHeight
prior
registration
##Topic
poll
##Formatter
##iddlewares
TOK
##VALID
cordova
m1
tt
##Ihale
##OUR
##31
##enti
##ins
##emap
getState
readUInt
148
fullName
MODE
##Override
configured
Ar
Mark
WAR
dictionary
fac
won
##hand
##Missing
setValue
106
##Selectors
mdUtil
skipped
csv
##Digits
Wrap
around
ios
rval
sa
##It
##mod
##Uint
parentPath
checksum
250
packageJson
##Blocks
preprocess
##class
##Ptr
##abb
removeAll
scroller
going
##Connected
##Router
Tc
dump
##ru
##Same
iso
writel
rootNode
cacheKey
##ierarch
opened
shortcut
COMP
##Snapshot
writeln
NULL
ST
Send
##Hover
##vg
##59
##ama
unre
heading
fns
decoder
130
isNull
REGEXP
132
RGB
pn
##artbeat
providers
##SourceMap
DELETE
accessToken
comparison
Parameter
##Email
queued
Sl
b1
h2
medi
##Patch
newVal
scen
##ugment
offsetWidth
Cons
##FFER
preferences
##Library
according
sock
##lines
##Href
##loaded
##mlink
124
Attribute
LENGTH
Filter
CLI
tern
##press
##Pool
##Tahta
returning
119
attributeName
INVALID
Events
##Slug
Mo
Yd
dict
ease
mand
s1
sourc
##frame
##2d
expiration
fromIndex
distr
pluginName
##END
appendTo
serviceRegistry
##Templates
Result
translation
closure
Determ
JavaScript
cent
rp
##sis
##Pkg
transactions
recip
autocomplete
transforms
destroyed
Expr
had
ls
paused
##com
keyName
shim
attrNode
desired
DEV
##Reducer
##Priority
CLO
Iter
Sty
samples
##Mut
vals
exponent
collections
eventData
swipe
visual
caption
##ReadStream
##Coords
##process
L11
dc
jp
ke
rpc
getLast
nodeList
onMouse
topics
##Trigger
##Strict
##Shape
##andidates
comparator
##cepts
##Star
addTo
caps
invariant
##Features
Inte
FIXME
Des
bite
hard
##reens
##eline
##Clause
emitted
iterable
##Outer
##ernel
mousemove
organization
Constructor
cn
##Ok
##war
onChange
##izers
##Steps
fileInfo
configPath
subtract
clientX
##yph
mouseup
sha1
suppress
TOKEN
OB
milliseconds
uA
##Pending
startOffset
coerce
descend
##Warning
AC
Dep
rob
##56
unes
remainder
##Endpoint
##Providers
##buf
##Retry
##eam
##GER
appPath
constraints
funcs
blend
URI
##Cells
##Tooltip
longer
catalog
sKey
##fg
##eros
clientY
147
detach
svc
separate
semver
TABLE
fur
##net
##Schem
##Fill
suc
##atory
##Comb
abstract
##IND
originalEvent
resourceName
longname
##Patterns
slots
gmf
Version
##rink
##PS
##iy
##ba
##agraph
##riting
0xf
webhook
##Syntax
simpl
Expression
permissions
##Allowed
snippet
yaml
##und
valueOf
errorCallback
shorthand
122
intent
imported
REQU
gutil
##umbn
mci
##Account
Current
Field
better
far
##Cancel
##ceeded
nodeify
validators
##illa
167
##Models
marked
##Parents
##Img
##StackOverflow
OPEN
sha256
Constants
02
DD
Dynam
GR
infer
enough
##tinu
rowIndex
componentName
140
144
159
##Inputs
declared
abortStackOverflow
18014
dont
tuple
##uting
##Zero
defs
setImmediate
##opts
INTER
REP
##Vertical
guard
##Print
##Multiple
##voke
WARN
Rel
v0
##BO
##alance
thrott
returnFiber
##ilar
strong
severity
objectStack
mappings
validated
webgl
Change
clearInterval
boundary
moveTo
##cli
coords
##Quote
uyari
VERSION
Game
ihal
##Scripts
##90
##rem
##utor
##args
findOne
##Interpol
inserted
##Install
lookahead
##Summary
encrypted
##Declarations
Tim
lit
##olume
Reset
temporary
dialect
codes
ej
hsl
##Du
##98
##legate
ones
paramName
##ibution
##Configs
assigned
##NotFound
UNI
##Assoc
broker
##Placeholder
##Category
Be
bus
oElement
pd
##Px
##ipt
initi
newChild
idle
##verti
##Seq
trying
namespaces
##Running
lexer
##Need
##Failure
oids
##FIX
Initialize
Av
Schema
ho
mass
getUTC
##EAR
scrollLeft
