{"version":"1.0","truncation":null,"padding":null,"added_tokens":[{"id":0,"special":true,"content":"<s>","single_word":false,"lstrip":false,"rstrip":false,"normalized":false},{"id":1,"special":true,"content":"</s>","single_word":false,"lstrip":false,"rstrip":false,"normalized":false},{"id":2,"special":true,"content":"<cls>","single_word":false,"lstrip":false,"rstrip":false,"normalized":false},{"id":3,"special":true,"content":"<pad>","single_word":false,"lstrip":false,"rstrip":false,"normalized":false},{"id":4,"special":true,"content":"<unk>","single_word":false,"lstrip":false,"rstrip":false,"normalized":false},{"id":5,"special":true,"content":"<mask>","single_word":false,"lstrip":false,"rstrip":false,"normalized":false},{"id":6,"special":true,"content":"[CLS]","single_word":false,"lstrip":false,"rstrip":false,"normalized":false},{"id":7,"special":true,"content":"[SEP]","single_word":false,"lstrip":false,"rstrip":false,"normalized":false},{"id":8,"special":true,"content":"[MASK]","single_word":false,"lstrip":false,"rstrip":false,"normalized":false},{"id":9,"special":true,"content":"[EOL]","single_word":false,"lstrip":false,"rstrip":false,"normalized":false},{"id":10,"special":true,"content":"[URL]","single_word":false,"lstrip":false,"rstrip":false,"normalized":false}],"normalizer":{"type":"BertNormalizer","clean_text":true,"handle_chinese_chars":true,"strip_accents":true,"lowercase":false},"pre_tokenizer":{"type":"BertPreTokenizer"},"post_processor":null,"decoder":{"type":"WordPiece","prefix":"##","cleanup":true},"model":{"type":"WordPiece","unk_token":"[UNK]","continuing_subword_prefix":"##","max_input_chars_per_word":100,"vocab":{"<s>":0,"</s>":1,"<cls>":2,"<pad>":3,"<unk>":4,"<mask>":5,"[CLS]":6,"[SEP]":7,"[MASK]":8,"[EOL]":9,"[URL]":10,"!":11,"\"":12,"#":13,"$":14,"%":15,"&":16,"'":17,"(":18,")":19,"*":20,"+":21,",":22,"-":23,".":24,"/":25,"0":26,"1":27,"2":28,"3":29,"4":30,"5":31,"6":32,"7":33,"8":34,"9":35,":":36,";":37,"<":38,"=":39,">":40,"?":41,"@":42,"A":43,"B":44,"C":45,"D":46,"E":47,"F":48,"G":49,"H":50,"I":51,"J":52,"K":53,"L":54,"M":55,"N":56,"O":57,"P":58,"Q":59,"R":60,"S":61,"T":62,"U":63,"V":64,"W":65,"X":66,"Y":67,"Z":68,"[":69,"\\":70,"]":71,"^":72,"_":73,"`":74,"a":75,"b":76,"c":77,"d":78,"e":79,"f":80,"g":81,"h":82,"i":83,"j":84,"k":85,"l":86,"m":87,"n":88,"o":89,"p":90,"q":91,"r":92,"s":93,"t":94,"u":95,"v":96,"w":97,"x":98,"y":99,"z":100,"{":101,"|":102,"}":103,"~":104,"§":105,"¨":106,"«":107,"°":108,"±":109,"·":110,"»":111,"×":112,"ß":113,"æ":114,"ø":115,"ı":116,"ɵ":117,"ʹ":118,"˜":119,"Δ":120,"Θ":121,"Ω":122,"α":123,"β":124,"δ":125,"ε":126,"λ":127,"φ":128,"ψ":129,"ω":130,"Д":131,"И":132,"М":133,"П":134,"С":135,"а":136,"б":137,"в":138,"г":139,"д":140,"е":141,"ж":142,"з":143,"и":144,"к":145,"л":146,"м":147,"н":148,"о":149,"п":150,"р":151,"с":152,"т":153,"у":154,"ф":155,"х":156,"ц":157,"ч":158,"ш":159,"ъ":160,"ы":161,"ь":162,"э":163,"ю":164,"я":165,"ա":166,"բ":167,"ե":168,"ի":169,"հ":170,"մ":171,"ո":172,"ս":173,"տ":174,"ր":175,"ა":176,"ბ":177,"ე":178,"ვ":179,"ი":180,"ლ":181,"მ":182,"რ":183,"ს":184,"ტ":185,"ᄀ":186,"ᄂ":187,"ᄃ":188,"ᄅ":189,"ᄆ":190,"ᄇ":191,"ᄉ":192,"ᄋ":193,"ᄌ":194,"ᄎ":195,"ᄐ":196,"ᄑ":197,"ᄒ":198,"ᅡ":199,"ᅢ":200,"ᅥ":201,"ᅦ":202,"ᅧ":203,"ᅩ":204,"ᅭ":205,"ᅮ":206,"ᅳ":207,"ᅴ":208,"ᅵ":209,"ᆨ":210,"ᆫ":211,"ᆯ":212,"ᆹ":213,"ᆼ":214,"–":215,"—":216,"‘":217,"’":218,"“":219,"”":220,"•":221,"…":222,"€":223,"→":224,"↓":225,"⇧":226,"−":227,"∞":228,"≤":229,"⌘":230,"─":231,"│":232,"┌":233,"┐":234,"└":235,"┘":236,"├":237,"┤":238,"┬":239,"┴":240,"═":241,"║":242,"╔":243,"╗":244,"╚":245,"╝":246,"╠":247,"╣":248,"╦":249,"╩":250,"✓":251,"✔":252,"✖":253,"✘":254,"❌":255,"⠂":256,"⠋":257,"⠐":258,"⠒":259,"⠙":260,"、":261,"。":262,"〇":263,"【":264,"】":265,"あ":266,"い":267,"う":268,"か":269,"き":270,"く":271,"け":272,"こ":273,"さ":274,"し":275,"す":276,"せ":277,"そ":278,"た":279,"っ":280,"つ":281,"て":282,"と":283,"な":284,"に":285,"の":286,"は":287,"ま":288,"み":289,"め":290,"も":291,"よ":292,"ら":293,"り":294,"る":295,"れ":296,"わ":297,"を":298,"ん":299,"ァ":300,"ィ":301,"イ":302,"ェ":303,"エ":304,"オ":305,"キ":306,"ク":307,"コ":308,"サ":309,"シ":310,"ス":311,"タ":312,"チ":313,"ッ":314,"テ":315,"ト":316,"ナ":317,"ハ":318,"フ":319,"ヘ":320,"マ":321,"メ":322,"モ":323,"ャ":324,"ュ":325,"ョ":326,"ラ":327,"リ":328,"ル":329,"レ":330,"ロ":331,"ン":332,"ー":333,"一":334,"三":335,"上":336,"下":337,"不":338,"与":339,"且":340,"东":341,"两":342,"个":343,"中":344,"串":345,"临":346,"为":347,"主":348,"举":349,"么":350,"义":351,"之":352,"也":353,"了":354,"事":355,"二":356,"于":357,"些":358,"交":359,"产":360,"仅":361,"从":362,"他":363,"代":364,"令":365,"以":366,"们":367,"件":368,"任":369,"份":370,"休":371,"优":372,"会":373,"传":374,"估":375,"似":376,"但":377,"位":378,"低":379,"体":380,"何":381,"余":382,"作":383,"你":384,"使":385,"例":386,"供":387,"依":388,"便":389,"保":390,"信":391,"修":392,"候":393,"値":394,"值":395,"偏":396,"做":397,"停":398,"储":399,"像":400,"允":401,"元":402,"充":403,"先":404,"免":405,"入":406,"全":407,"公":408,"共":409,"关":410,"其":411,"具":412,"兼":413,"内":414,"册":415,"再":416,"写":417,"冲":418,"决":419,"况":420,"准":421,"减":422,"几":423,"処":424,"出":425,"击":426,"函":427,"分":428,"切":429,"列":430,"则":431,"创":432,"初":433,"删":434,"判":435,"别":436,"到":437,"制":438,"刷":439,"刻":440,"削":441,"前":442,"剩":443,"割":444,"力":445,"功":446,"加":447,"务":448,"动":449,"動":450,"包":451,"化":452,"匹":453,"区":454,"十":455,"升":456,"午":457,"半":458,"单":459,"博":460,"占":461,"卡":462,"印":463,"即":464,"历":465,"压":466,"原":467,"去":468,"参":469,"及":470,"双":471,"反":472,"发":473,"取":474,"变":475,"口":476,"句":477,"只":478,"可":479,"台":480,"史":481,"右":482,"号":483,"各":484,"合":485,"同":486,"名":487,"后":488,"向":489,"否":490,"含":491,"听":492,"启":493,"告":494,"命":495,"和":496,"响":497,"唯":498,"器":499,"回":500,"因":501,"围":502,"国":503,"图":504,"在":505,"地":506,"址":507,"均":508,"坐":509,"块":510,"型":511,"域":512,"基":513,"報":514,"場":515,"塞":516,"填":517,"境":518,"增":519,"声":520,"处":521,"备":522,"変":523,"复":524,"外":525,"多":526,"大":527,"天":528,"失":529,"头":530,"夹":531,"好":532,"如":533,"始":534,"子":535,"字":536,"存":537,"它":538,"安":539,"完":540,"定":541,"实":542,"実":543,"客":544,"容":545,"宽":546,"密":547,"对":548,"导":549,"対":550,"射":551,"将":552,"小":553,"少":554,"尔":555,"尝":556,"就":557,"尾":558,"局":559,"层":560,"展":561,"属":562,"嵌":563,"工":564,"左":565,"己":566,"已":567,"布":568,"带":569,"常":570,"平":571,"年":572,"并":573,"广":574,"序":575,"库":576,"应":577,"度":578,"廓":579,"建":580,"开":581,"异":582,"式":583,"引":584,"弹":585,"强":586,"归":587,"当":588,"录":589,"形":590,"径":591,"待":592,"後":593,"得":594,"復":595,"循":596,"微":597,"必":598,"志":599,"快":600,"忽":601,"态":602,"性":603,"总":604,"息":605,"您":606,"情":607,"想":608,"意":609,"成":610,"我":611,"或":612,"截":613,"戳":614,"户":615,"所":616,"扁":617,"手":618,"才":619,"打":620,"执":621,"扩":622,"找":623,"把":624,"抛":625,"报":626,"抽":627,"拉":628,"拖":629,"拟":630,"择":631,"括":632,"拷":633,"拼":634,"持":635,"挂":636,"指":637,"按":638,"捕":639,"换":640,"据":641,"捷":642,"掉":643,"排":644,"接":645,"控":646,"推":647,"描":648,"提":649,"插":650,"換":651,"播":652,"操":653,"支":654,"收":655,"改":656,"放":657,"效":658,"数":659,"整":660,"文":661,"断":662,"新":663,"方":664,"无":665,"日":666,"旧":667,"时":668,"明":669,"星":670,"映":671,"是":672,"显":673,"時":674,"普":675,"暂":676,"暴":677,"曲":678,"更":679,"書":680,"替":681,"最":682,"月":683,"有":684,"服":685,"期":686,"未":687,"本":688,"机":689,"权":690,"束":691,"条":692,"来":693,"板":694,"构":695,"析":696,"果":697,"某":698,"染":699,"查":700,"标":701,"栈":702,"树":703,"校":704,"样":705,"根":706,"格":707,"框":708,"档":709,"检":710,"業":711,"模":712,"横":713,"次":714,"止":715,"正":716,"此":717,"步":718,"死":719,"殊":720,"段":721,"毁":722,"每":723,"比":724,"毕":725,"求":726,"没":727,"泄":728,"法":729,"注":730,"活":731,"派":732,"流":733,"测":734,"浏":735,"消":736,"深":737,"添":738,"清":739,"渡":740,"渲":741,"源":742,"滑":743,"滚":744,"满":745,"滤":746,"漏":747,"漢":748,"点":749,"無":750,"然":751,"照":752,"父":753,"片":754,"版":755,"牌":756,"特":757,"状":758,"独":759,"环":760,"现":761,"現":762,"理":763,"生":764,"用":765,"由":766,"画":767,"留":768,"略":769,"登":770,"白":771,"百":772,"的":773,"监":774,"盖":775,"目":776,"直":777,"相":778,"省":779,"看":780,"真":781,"着":782,"知":783,"码":784,"确":785,"示":786,"禁":787,"离":788,"种":789,"秒":790,"称":791,"移":792,"程":793,"稍":794,"空":795,"立":796,"端":797,"符":798,"第":799,"等":800,"签":801,"简":802,"算":803,"管":804,"类":805,"系":806,"納":807,"素":808,"索":809,"级":810,"纯":811,"线":812,"组":813,"终":814,"经":815,"绑":816,"结":817,"绘":818,"给":819,"络":820,"绝":821,"统":822,"继":823,"续":824,"维":825,"缀":826,"缓":827,"编":828,"缩":829,"缺":830,"网":831,"罩":832,"置":833,"署":834,"老":835,"考":836,"者":837,"而":838,"联":839,"能":840,"脚":841,"自":842,"至":843,"致":844,"般":845,"色":846,"节":847,"若":848,"范":849,"获":850,"菜":851,"藏":852,"虑":853,"虚":854,"行":855,"补":856,"表":857,"被":858,"装":859,"西":860,"要":861,"覆":862,"见":863,"规":864,"视":865,"览":866,"角":867,"解":868,"触":869,"言":870,"計":871,"設":872,"警":873,"计":874,"认":875,"让":876,"记":877,"许":878,"设":879,"访":880,"证":881,"评":882,"识":883,"词":884,"译":885,"试":886,"话":887,"询":888,"该":889,"语":890,"误":891,"说":892,"请":893,"读":894,"调":895,"象":896,"贝":897,"败":898,"资":899,"赋":900,"赖":901,"走":902,"起":903,"超":904,"足":905,"距":906,"路":907,"跳":908,"身":909,"転":910,"车":911,"转":912,"轮":913,"载":914,"较":915,"辑":916,"输":917,"边":918,"达":919,"过":920,"运":921,"返":922,"还":923,"这":924,"进":925,"连":926,"述":927,"追":928,"退":929,"送":930,"逆":931,"选":932,"递":933,"通":934,"速":935,"造":936,"週":937,"逻":938,"遇":939,"遍":940,"道":941,"遮":942,"避":943,"那":944,"部":945,"都":946,"配":947,"采":948,"释":949,"里":950,"重":951,"量":952,"针":953,"钥":954,"钮":955,"链":956,"销":957,"锁":958,"错":959,"键":960,"长":961,"開":962,"間":963,"関":964,"闭":965,"问":966,"间":967,"队":968,"防":969,"附":970,"际":971,"限":972,"除":973,"隐":974,"隔":975,"集":976,"零":977,"需":978,"露":979,"静":980,"非":981,"面":982,"音":983,"页":984,"顶":985,"项":986,"顺":987,"须":988,"预":989,"题":990,"颜":991,"额":992,"饰":993,"首":994,"验":995,"高":996,"默":997,"齐":998,"ﬁ":999,"！":1000,"（":1001,"）":1002,"，":1003,"：":1004,"；":1005,"？":1006,"ｰ":1007,"ﾉ":1008,"ﾟ":1009,"🎁":1010,"##a":1011,"##y":1012,"##e":1013,"##r":1014,"##s":1015,"##p":1016,"##P":1017,"##o":1018,"##g":1019,"##n":1020,"##S":1021,"##t":1022,"##i":1023,"##f":1024,"##T":1025,"##V":1026,"##A":1027,"##I":1028,"##L":1029,"##B":1030,"##Y":1031,"##R":1032,"##l":1033,"##F":1034,"##m":1035,"##x":1036,"##u":1037,"##c":1038,"##k":1039,"##H":1040,"##h":1041,"##1":1042,"##d":1043,"##C":1044,"##b":1045,"##E":1046,"##W":1047,"##D":1048,"##K":1049,"##O":1050,"##j":1051,"##v":1052,"##U":1053,"##2":1054,"##5":1055,"##6":1056,"##0":1057,"##w":1058,"##M":1059,"##8":1060,"##3":1061,"##4":1062,"##N":1063,"##9":1064,"##G":1065,"##7":1066,"##Z":1067,"##q":1068,"##Q":1069,"##z":1070,"##J":1071,"##X":1072,"##の":1073,"##ル":1074,"##っ":1075,"##て":1076,"##い":1077,"##れ":1078,"##は":1079,"##オ":1080,"##フ":1081,"##シ":1082,"##ェ":1083,"##ク":1084,"##ト":1085,"##を":1086,"##╩":1087,"##═":1088,"##╝":1089,"##╚":1090,"##е":1091,"##к":1092,"##с":1093,"##т":1094,"##о":1095,"##в":1096,"##ы":1097,"##и":1098,"##ı":1099,"##л":1100,"##я":1101,"##н":1102,"##┌":1103,"##─":1104,"##┐":1105,"##у":1106,"##ц":1107,"##п":1108,"##р":1109,"##а":1110,"##ᅦ":1111,"##ᄋ":1112,"##ᅵ":1113,"##ᄇ":1114,"##ᅳ":1115,"##ᆯ":1116,"##ᅴ":1117,"##┬":1118,"##レ":1119,"##ヘ":1120,"##も":1121,"##ン":1122,"##ラ":1123,"##г":1124,"##м":1125,"##ᅡ":1126,"##ᆼ":1127,"##ᄉ":1128,"##ᅩ":1129,"##ᆨ":1130,"##る":1131,"##ж":1132,"##ᄅ":1133,"##ᄒ":1134,"##ᄀ":1135,"##キ":1136,"##ー":1137,"##マ":1138,"##ッ":1139,"##チ":1140,"##ᅢ":1141,"##ᅥ":1142,"##ш":1143,"##д":1144,"##メ":1145,"##ュ":1146,"##イ":1147,"##タ":1148,"##ハ":1149,"##か":1150,"##ч":1151,"##ь":1152,"##ロ":1153,"##ᄎ":1154,"##з":1155,"##ｰ":1156,"##ﾟ":1157,"##ε":1158,"##ᄂ":1159,"##ᄆ":1160,"##ᅧ":1161,"##ᆫ":1162,"##°":1163,"##ᄐ":1164,"##ր":1165,"##ի":1166,"##ß":1167,"##б":1168,"##ス":1169,"##と":1170,"##ᅭ":1171,"##す":1172,"##δ":1173,"##う":1174,"##せ":1175,"##な":1176,"##ʹ":1177,"##ᄌ":1178,"##た":1179,"##め":1180,"##に":1181,"##つ":1182,"##け":1183,"##╣":1184,"##╠":1185,"##ᅮ":1186,"##ე":1187,"##ტ":1188,"##მ":1189,"##ბ":1190,"##რ":1191,"##ს":1192,"##し":1193,"##λ":1194,"##Ω":1195,"##└":1196,"##┘":1197,"##┴":1198,"##ю":1199,"##ъ":1200,"##ո":1201,"##ս":1202,"##ャ":1203,"##−":1204,"##み":1205,"##ァ":1206,"##コ":1207,"##╗":1208,"##х":1209,"##├":1210,"##┤":1211,"##こ":1212,"##ら":1213,"##ま":1214,"##ø":1215,"##ა":1216,"##ი":1217,"##テ":1218,"##ィ":1219,"##ᄃ":1220,"##˜":1221,"##き":1222,"##リ":1223,"##ナ":1224,"##│":1225,"##φ":1226,"##ვ":1227,"##ᆹ":1228,"##サ":1229,"##あ":1230,"##り":1231,"##β":1232,"##ե":1233,"##տ":1234,"##մ":1235,"##բ":1236,"##ф":1237,"##よ":1238,"##ョ":1239,"##╦":1240,"##×":1241,"##æ":1242,"##α":1243,"##⠙":1244,"##╔":1245,"##ん":1246,"##║":1247,"##モ":1248,"##ლ":1249,"##€":1250,"##そ":1251,"##ա":1252,"##⠋":1253,"##❌":1254,"##ᄑ":1255,"##さ":1256,"##⠒":1257,"##⠂":1258,"##⠐":1259,"##ψ":1260,"##э":1261,"##→":1262,"##↓":1263,"##く":1264,"##Θ":1265,"##ﾉ":1266,"##✓":1267,"##ω":1268,"##エ":1269,"##С":1270,"##✔":1271,"##〇":1272,"##Д":1273,"##✘":1274,"##わ":1275,"##on":1276,"##er":1277,"##ti":1278,"##en":1279,"##et":1280,"##es":1281,"##at":1282,"##ar":1283,"##tion":1284,"##in":1285,"##or":1286,"##al":1287,"th":1288,"##le":1289,"##ur":1290,"##is":1291,"##nc":1292,"if":1293,"##ent":1294,"##se":1295,"##de":1296,"##ro":1297,"##am":1298,"##unc":1299,"##unction":1300,"##ec":1301,"function":1302,"ret":1303,"##urn":1304,"return":1305,"##ed":1306,"con":1307,"var":1308,"##ac":1309,"##st":1310,"##ul":1311,"##rr":1312,"this":1313,"in":1314,"##an":1315,"##it":1316,"st":1317,"re":1318,"##re":1319,"##ue":1320,"##ing":1321,"##ame":1322,"##ut":1323,"##pe":1324,"##ode":1325,"##ate":1326,"op":1327,"##ype":1328,"##ig":1329,"##il":1330,"to":1331,"##ect":1332,"##el":1333,"##as":1334,"##th":1335,"##ag":1336,"##tions":1337,"res":1338,"the":1339,"##ment":1340,"ne":1341,"##om":1342,"##xt":1343,"is":1344,"##ol":1345,"par":1346,"##ath":1347,"val":1348,"pro":1349,"##ad":1350,"##bj":1351,"##ch":1352,"##ess":1353,"##od":1354,"for":1355,"##ey":1356,"##ata":1357,"##ay":1358,"tr":1359,"##nd":1360,"##tr":1361,"##ter":1362,"##oc":1363,"##ic":1364,"##em":1365,"##id":1366,"el":1367,"##ef":1368,"##pl":1369,"err":1370,"type":1371,"##ile":1372,"get":1373,"options":1374,"##ult":1375,"##ot":1376,"new":1377,"##ve":1378,"##ack":1379,"ch":1380,"len":1381,"##gth":1382,"##all":1383,"##ap":1384,"else":1385,"##ir":1386,"##ab":1387,"##ow":1388,"##im":1389,"length":1390,"const":1391,"##ts":1392,"key":1393,"##In":1394,"value":1395,"##us":1396,"name":1397,"##ase":1398,"##rg":1399,"##bject":1400,"##um":1401,"##age":1402,"##ext":1403,"##ull":1404,"data":1405,"##est":1406,"##ers":1407,"##ation":1408,"##Name":1409,"##dex":1410,"##ce":1411,"lo":1412,"ex":1413,"##per":1414,"node":1415,"##ou":1416,"cont":1417,"id":1418,"arg":1419,"##ff":1420,"call":1421,"##ty":1422,"str":1423,"null":1424,"on":1425,"##atch":1426,"##ist":1427,"##qu":1428,"##end":1429,"cl":1430,"##fig":1431,"##ion":1432,"##rray":1433,"com":1434,"##ri":1435,"##and":1436,"un":1437,"true":1438,"result":1439,"path":1440,"##lement":1441,"##vent":1442,"##iz":1443,"##ine":1444,"def":1445,"##ach":1446,"param":1447,"##able":1448,"##ver":1449,"set":1450,"##Con":1451,"error":1452,"##ser":1453,"##ll":1454,"##St":1455,"##rror":1456,"##back":1457,"##alse":1458,"##ind":1459,"false":1460,"##ild":1461,"it":1462,"##os":1463,"##dd":1464,"##rom":1465,"##our":1466,"##ace":1467,"file":1468,"##ng":1469,"index":1470,"##art":1471,"##of":1472,"su":1473,"##ge":1474,"##ass":1475,"##oin":1476,"log":1477,"##Path":1478,"##ort":1479,"ap":1480,"##ak":1481,"##Id":1482,"as":1483,"de":1484,"##ct":1485,"##put":1486,"config":1487,"##ht":1488,"##Pro":1489,"##ument":1490,"##if":1491,"se":1492,"##ain":1493,"of":1494,"##To":1495,"##ush":1496,"##ib":1497,"##ttr":1498,"let":1499,"##Val":1500,"##out":1501,"##ore":1502,"##pon":1503,"callback":1504,"string":1505,"add":1506,"sc":1507,"push":1508,"en":1509,"##00":1510,"requ":1511,"##row":1512,"##anc":1513,"##ined":1514,"case":1515,"fil":1516,"object":1517,"cur":1518,"##rl":1519,"##orm":1520,"##ource":1521,"##ight":1522,"##ize":1523,"wh":1524,"##ken":1525,"##lo":1526,"##ime":1527,"##ole":1528,"bu":1529,"##ith":1530,"be":1531,"an":1532,"##ule":1533,"##arg":1534,"##cess":1535,"col":1536,"##ault":1537,"has":1538,"##ber":1539,"sh":1540,"cre":1541,"##ug":1542,"##essage":1543,"or":1544,"typeof":1545,"met":1546,"##ead":1547,"##ord":1548,"##def":1549,"##perty":1550,"##op":1551,"pre":1552,"##Ch":1553,"##ting":1554,"##ice":1555,"##Type":1556,"event":1557,"sel":1558,"##tring":1559,"##defined":1560,"exp":1561,"element":1562,"args":1563,"##ock":1564,"ac":1565,"and":1566,"self":1567,"parse":1568,"##Data":1569,"##reak":1570,"##ps":1571,"undefined":1572,"##ress":1573,"create":1574,"out":1575,"##arget":1576,"mod":1577,"curr":1578,"##set":1579,"##nt":1580,"throw":1581,"opts":1582,"##ance":1583,"##ew":1584,"sp":1585,"we":1586,"##ans":1587,"default":1588,"break":1589,"obj":1590,"##ast":1591,"##mp":1592,"##ure":1593,"##Key":1594,"##Node":1595,"not":1596,"##ON":1597,"##ix":1598,"match":1599,"parent":1600,"start":1601,"item":1602,"##ition":1603,"inst":1604,"next":1605,"##eck":1606,"##hod":1607,"attr":1608,"##ax":1609,"end":1610,"##uer":1611,"##un":1612,"cons":1613,"map":1614,"##Value":1615,"##ise":1616,"js":1617,"current":1618,"##Error":1619,"##lect":1620,"resol":1621,"##Op":1622,"text":1623,"code":1624,"message":1625,"##Cont":1626,"##umber":1627,"##up":1628,"doc":1629,"##File":1630,"##eld":1631,"url":1632,"##ove":1633,"0x":1634,"##ield":1635,"##fo":1636,"sub":1637,"##Of":1638,"##Cl":1639,"Error":1640,"##Index":1641,"##Re":1642,"##ject":1643,"target":1644,"##ange":1645,"##ator":1646,"##uery":1647,"##ite":1648,"##tive":1649,"##ffer":1650,"##odel":1651,"##pt":1652,"from":1653,"wr":1654,"up":1655,"##ust":1656,"repl":1657,"child":1658,"##one":1659,"##iew":1660,"##String":1661,"state":1662,"rem":1663,"##ync":1664,"pl":1665,"context":1666,"ext":1667,"##Element":1668,"dir":1669,"##List":1670,"##Array":1671,"Object":1672,"##Ex":1673,"##ly":1674,"##idth":1675,"##Par":1676,"token":1677,"line":1678,"all":1679,"##ound":1680,"argument":1681,"ht":1682,"console":1683,"source":1684,"##ody":1685,"content":1686,"##ger":1687,"##ount":1688,"loc":1689,"##til":1690,"params":1691,"that":1692,"##ign":1693,"##ient":1694,"al":1695,"method":1696,"ser":1697,"with":1698,"##ail":1699,"##ip":1700,"stat":1701,"##val":1702,"form":1703,"pos":1704,"##ibut":1705,"replace":1706,"app":1707,"##ener":1708,"##cri":1709,"##Com":1710,"resolve":1711,"list":1712,"array":1713,"then":1714,"read":1715,"##ponse":1716,"##Res":1717,"Th":1718,"##mit":1719,"##ost":1720,"##ffset":1721,"hand":1722,"##ok":1723,"sl":1724,"##oot":1725,"##iv":1726,"##ink":1727,"##sed":1728,"##ang":1729,"##eight":1730,"##ide":1731,"req":1732,"##ues":1733,"##ub":1734,"class":1735,"##date":1736,"##act":1737,"##roll":1738,"check":1739,"instance":1740,"dis":1741,"del":1742,"##ction":1743,"##ream":1744,"request":1745,"##ep":1746,"##ory":1747,"keys":1748,"join":1749,"trans":1750,"process":1751,"##Each":1752,"##ated":1753,"arguments":1754,"input":1755,"##Event":1756,"body":1757,"no":1758,"max":1759,"base":1760,"sty":1761,"query":1762,"last":1763,"##ersion":1764,"##ames":1765,"##ler":1766,"forEach":1767,"##ml":1768,"##ss":1769,"##Time":1770,"##form":1771,"##ies":1772,"##ties":1773,"tem":1774,"head":1775,"ref":1776,"##ponent":1777,"user":1778,"##EA":1779,"pr":1780,"module":1781,"Math":1782,"##tic":1783,"##ache":1784,"##ope":1785,"cb":1786,"field":1787,"##ire":1788,"##Object":1789,"property":1790,"##Exp":1791,"tag":1792,"##ity":1793,"##irst":1794,"filter":1795,"##rc":1796,"time":1797,"##ete":1798,"##Property":1799,"model":1800,"##bug":1801,"##LE":1802,"##ded":1803,"by":1804,"comp":1805,"prot":1806,"##Options":1807,"remove":1808,"10":1809,"##og":1810,"##ection":1811,"spl":1812,"##oint":1813,"##ender":1814,"test":1815,"response":1816,"##eft":1817,"##ave":1818,"valid":1819,"Array":1820,"##tern":1821,"can":1822,"##Se":1823,"##abel":1824,"##32":1825,"min":1826,"##Map":1827,"select":1828,"##lock":1829,"##Dir":1830,"##ify":1831,"##str":1832,"##port":1833,"number":1834,"des":1835,"##vice":1836,"##ale":1837,"##Config":1838,"##enc":1839,"##tial":1840,"prop":1841,"##Col":1842,"output":1843,"##der":1844,"##State":1845,"document":1846,"debug":1847,"indexOf":1848,"update":1849,"style":1850,"##name":1851,"##ask":1852,"appl":1853,"##ial":1854,"rec":1855,"##ick":1856,"##wn":1857,"##ere":1858,"##lection":1859,"##Class":1860,"##Text":1861,"##ER":1862,"##ill":1863,"##own":1864,"dep":1865,"##ont":1866,"at":1867,"##Code":1868,"HEA":1869,"##Attr":1870,"##perties":1871,"do":1872,"##romise":1873,"le":1874,"bind":1875,"##ary":1876,"aut":1877,"comm":1878,"root":1879,"##Sc":1880,"use":1881,"client":1882,"##ules":1883,"##av":1884,"ct":1885,"##chem":1886,"##ibute":1887,"find":1888,"##int":1889,"format":1890,"write":1891,"##SON":1892,"##odes":1893,"conn":1894,"##plate":1895,"12":1896,"##ry":1897,"##umn":1898,"##tif":1899,"width":1900,"##try":1901,"char":1902,"fn":1903,"##Def":1904,"HEAP":1905,"first":1906,"##ens":1907,"##ose":1908,"##By":1909,"load":1910,"##Info":1911,"are":1912,"offset":1913,"catch":1914,"json":1915,"##lob":1916,"16":1917,"db":1918,"##uct":1919,"fl":1920,"##ren":1921,"##sg":1922,"##uld":1923,"status":1924,"##ould":1925,"src":1926,"##ork":1927,"##Bu":1928,"##vel":1929,"split":1930,"try":1931,"##Len":1932,"im":1933,"##sert":1934,"reg":1935,"spec":1936,"##ression":1937,"##lu":1938,"##te":1939,"##indow":1940,"prev":1941,"dec":1942,"If":1943,"The":1944,"while":1945,"scope":1946,"##tem":1947,"htt":1948,"view":1949,"##ations":1950,"##yp":1951,"##les":1952,"fs":1953,"slice":1954,"##Url":1955,"##Pos":1956,"##aw":1957,"##ook":1958,"25":1959,"##inal":1960,"contain":1961,"util":1962,"emit":1963,"##ename":1964,"##ple":1965,"##OR":1966,"##ugin":1967,"##chema":1968,"version":1969,"##OD":1970,"arr":1971,"In":1972,"top":1973,"##ption":1974,"left":1975,"reject":1976,"##ected":1977,"red":1978,"##rap":1979,"##fix":1980,"require":1981,"##ake":1982,"##tin":1983,"##Token":1984,"24":1985,"##Tr":1986,"##tings":1987,"height":1988,"##mb":1989,"##Call":1990,"##Child":1991,"ab":1992,"ol":1993,"##IN":1994,"ctx":1995,"values":1996,"build":1997,"##Size":1998,"##otype":1999,"##roup":2000,"link":2001,"##ence":2002,"stream":2003,"bo":2004,"apply":2005,"##load":2006,"##ash":2007,"ed":2008,"##Fil":2009,"enc":2010,"orig":2011,"sw":2012,"##ree":2013,"inc":2014,"info":2015,"##Un":2016,"##TE":2017,"##Param":2018,"color":2019,"size":2020,"##are":2021,"##TA":2022,"##Arg":2023,"cache":2024,"##En":2025,"buffer":2026,"##AA":2027,"render":2028,"##Set":2029,"##ait":2030,"exec":2031,"html":2032,"JSON":2033,"11":2034,"##ark":2035,"##ard":2036,"rel":2037,"prom":2038,"##io":2039,"handle":2040,"row":2041,"##ative":2042,"rout":2043,"ver":2044,"##ormal":2045,"##ier":2046,"##Sp":2047,"msg":2048,"##ages":2049,"files":2050,"run":2051,"##Or":2052,"delete":2053,"##Item":2054,"ass":2055,"Promise":2056,"Re":2057,"##ates":2058,"##efore":2059,"env":2060,"##Mod":2061,"window":2062,"##Obj":2063,"properties":2064,"page":2065,"##erm":2066,"##Met":2067,"##ann":2068,"##Sync":2069,"option":2070,"prototype":2071,"stack":2072,"##Width":2073,"##Requ":2074,"instanceof":2075,"children":2076,"##attern":2077,"##fter":2078,"##ant":2079,"##Line":2080,"sy":2081,"mem":2082,"HEAP32":2083,"##Hand":2084,"local":2085,"ad":2086,"##Length":2087,"label":2088,"template":2089,"##ypes":2090,"##red":2091,"component":2092,"##ther":2093,"##valid":2094,"##tity":2095,"isArray":2096,"done":2097,"##ments":2098,"##arch":2099,"##ied":2100,"##Sty":2101,"each":2102,"will":2103,"##gn":2104,"server":2105,"##ension":2106,"num":2107,"conc":2108,"command":2109,"schema":2110,"##View":2111,"fr":2112,"but":2113,"##ong":2114,"##On":2115,"plugin":2116,"##Ser":2117,"logger":2118,"##Int":2119,"##Content":2120,"##UR":2121,"##EN":2122,"paramet":2123,"##At":2124,"##Own":2125,"##itch":2126,"##ell":2127,"pack":2128,"##itial":2129,"css":2130,"block":2131,"have":2132,"column":2133,"##Function":2134,"##ired":2135,"exis":2136,"constr":2137,"##ocket":2138,"hash":2139,"##sing":2140,"old":2141,"over":2142,"props":2143,"range":2144,"##itle":2145,"##ines":2146,"position":2147,"##arn":2148,"##With":2149,"gener":2150,"##me":2151,"##led":2152,"should":2153,"String":2154,"inter":2155,"must":2156,"host":2157,"dom":2158,"##res":2159,"##ower":2160,"div":2161,"##Case":2162,"##ES":2163,"dest":2164,"##uration":2165,"##AN":2166,"##itor":2167,"concat":2168,"##Tag":2169,"##olean":2170,"##ID":2171,"##uctor":2172,"##From":2173,"es":2174,"init":2175,"##mpty":2176,"##mbol":2177,"##Count":2178,"cle":2179,"when":2180,"substr":2181,"promise":2182,"##Context":2183,"api":2184,"right":2185,"##cript":2186,"##ved":2187,"normal":2188,"##ML":2189,"async":2190,"toString":2191,"cm":2192,"##Up":2193,"##Start":2194,"aw":2195,"headers":2196,"cal":2197,"##End":2198,"##Result":2199,"imp":2200,"##LA":2201,"##Str":2202,"##ner":2203,"names":2204,"##ccess":2205,"date":2206,"append":2207,"##Callback":2208,"100":2209,"##TI":2210,"##ia":2211,"##Height":2212,"auth":2213,"##ex":2214,"scroll":2215,"count":2216,"opt":2217,"##lar":2218,"##For":2219,"task":2220,"##ibutes":2221,"sec":2222,"oper":2223,"##its":2224,"##CK":2225,"##ueue":2226,"14":2227,"found":2228,"action":2229,"one":2230,"##ulti":2231,"lay":2232,"##Attribute":2233,"##line":2234,"##lem":2235,"filename":2236,"##opy":2237,"##Pre":2238,"http":2239,"prefix":2240,"any":2241,"##Message":2242,"##play":2243,"only":2244,"##Style":2245,"##ish":2246,"so":2247,"int":2248,"Type":2249,"##ession":2250,"address":2251,"##OwnProperty":2252,"##Date":2253,"15":2254,"##Names":2255,"ign":2256,"##annel":2257,"meta":2258,"##raph":2259,"switch":2260,"##ox":2261,"pri":2262,"settings":2263,"We":2264,"glob":2265,"send":2266,"##ote":2267,"##endenc":2268,"##Select":2269,"##ual":2270,"##ob":2271,"stringify":2272,"##Timeout":2273,"##unk":2274,"13":2275,"scri":2276,"make":2277,"##pace":2278,"back":2279,"##oad":2280,"##Offset":2281,"work":2282,"20":2283,"##Listener":2284,"##ustom":2285,"##au":2286,"##idd":2287,"acc":2288,"##Buffer":2289,"##Request":2290,"##UL":2291,"##cription":2292,"ind":2293,"pattern":2294,"St":2295,"##Model":2296,"need":2297,"##OM":2298,"gr":2299,"##De":2300,"wrap":2301,"##ized":2302,"container":2303,"##vate":2304,"##read":2305,"##imit":2306,"##As":2307,"iter":2308,"##ive":2309,"##gex":2310,"##orts":2311,"##ager":2312,"inclu":2313,"table":2314,"results":2315,"tim":2316,"##igh":2317,"hasOwnProperty":2318,"##ces":2319,"det":2320,"await":2321,"sup":2322,"##entif":2323,"##ature":2324,"entry":2325,"pass":2326,"project":2327,"after":2328,"nodes":2329,"##Stream":2330,"##ict":2331,"web":2332,"Ch":2333,"sort":2334,"sign":2335,"warn":2336,"other":2337,"##ift":2338,"me":2339,"##ute":2340,"##Pl":2341,"##ubl":2342,"##All":2343,"assert":2344,"group":2345,"defer":2346,"transform":2347,"##Handler":2348,"##tinue":2349,"##ally":2350,"md":2351,"##ond":2352,"original":2353,"before":2354,"func":2355,"##Head":2356,"##Doc":2357,"initial":2358,"close":2359,"mer":2360,"##ectory":2361,"route":2362,"items":2363,"##Ref":2364,"title":2365,"Date":2366,"port":2367,"##ular":2368,"##order":2369,"##word":2370,"##ors":2371,"##Expression":2372,"level":2373,"location":2374,"constructor":2375,"18":2376,"open":2377,"timeout":2378,"prov":2379,"##ton":2380,"collection":2381,"rule":2382,"##ome":2383,"assign":2384,"##aht":2385,"allow":2386,"show":2387,"##roller":2388,"poin":2389,"##ke":2390,"##Man":2391,"##ication":2392,"##xis":2393,"mode":2394,"##Field":2395,"dr":2396,"##abled":2397,"search":2398,"handler":2399,"##ek":2400,"lang":2401,"##ified":2402,"##rou":2403,"##AL":2404,"##kip":2405,"store":2406,"##older":2407,"errors":2408,"temp":2409,"##Sh":2410,"extr":2411,"continue":2412,"di":2413,"events":2414,"##Number":2415,"##ater":2416,"##Loc":2417,"##Stat":2418,"##ari":2419,"service":2420,"##ious":2421,"##tes":2422,"##ouse":2423,"##Th":2424,"##ayload":2425,"extend":2426,"br":2427,"##Match":2428,"flag":2429,"regis":2430,"##Le":2431,"pop":2432,"define":2433,"##Inter":2434,"255":2435,"##oun":2436,"##iled":2437,"script":2438,"##low":2439,"validate":2440,"##con":2441,"exists":2442,"##Out":2443,"##Module":2444,"required":2445,"##ape":2446,"##Trans":2447,"##Ap":2448,"##Query":2449,"##Source":2450,"gl":2451,"##vert":2452,"##ible":2453,"ignore":2454,"co":2455,"per":2456,"parts":2457,"##ings":2458,"was":2459,"STA":2460,"session":2461,"point":2462,"resource":2463,"mark":2464,"##Form":2465,"##alk":2466,"##erence":2467,"##ndle":2468,"socket":2469,"copy":2470,"returns":2471,"trim":2472,"17":2473,"utils":2474,"##Util":2475,"##iter":2476,"chunk":2477,"##her":2478,"##orage":2479,"##ider":2480,"##ateg":2481,"##ample":2482,"##path":2483,"##Params":2484,"##uth":2485,"vis":2486,"full":2487,"##AR":2488,"##OP":2489,"##rol":2490,"##ipe":2491,"stop":2492,"man":2493,"##ets":2494,"now":2495,"global":2496,"raw":2497,"##Client":2498,"##16":2499,"change":2500,"##Char":2501,"Con":2502,"ev":2503,"multi":2504,"This":2505,"redu":2506,"##Component":2507,"##ST":2508,"##ices":2509,"bl":2510,"##Fn":2511,"member":2512,"##atic":2513,"##ati":2514,"tokens":2515,"package":2516,"##ref":2517,"header":2518,"##Valid":2519,"display":2520,"tmp":2521,"image":2522,"##Dec":2523,"##gr":2524,"##IG":2525,"##Cache":2526,"elements":2527,"##ich":2528,"##Files":2529,"##old":2530,"##rowser":2531,"##af":2532,"##Args":2533,"##vas":2534,"##Ac":2535,"idx":2536,"##Reg":2537,"##Rec":2538,"##ause":2539,"cmd":2540,"expr":2541,"parsed":2542,"post":2543,"parameters":2544,"19":2545,"cond":2546,"attribute":2547,"connection":2548,"attributes":2549,"##Add":2550,"vari":2551,"##ters":2552,"##TML":2553,"Bu":2554,"custom":2555,"##be":2556,"##And":2557,"conf":2558,"##Keys":2559,"##Version":2560,"##oid":2561,"##ector":2562,"##Values":2563,"##entifier":2564,"##adata":2565,"active":2566,"ph":2567,"rep":2568,"clone":2569,"##tf":2570,"empty":2571,"##inition":2572,"##Parent":2573,"##ready":2574,"##Im":2575,"26":2576,"record":2577,"fields":2578,"publ":2579,"##ED":2580,"tot":2581,"elem":2582,"Com":2583,"ag":2584,"Un":2585,"which":2586,"payload":2587,"##igger":2588,"av":2589,"##Sy":2590,"previous":2591,"##ph":2592,"##ding":2593,"tab":2594,"##SS":2595,"total":2596,"22":2597,"##son":2598,"IN":2599,"pad":2600,"private":2601,"##Block":2602,"##ott":2603,"##plete":2604,"DE":2605,"expression":2606,"does":2607,"ang":2608,"merge":2609,"##ias":2610,"description":2611,"channel":2612,"cap":2613,"##xy":2614,"##ped":2615,"##BLE":2616,"dependenc":2617,"invalid":2618,"##Ext":2619,"paths":2620,"##Target":2621,"##64":2622,"lines":2623,"##Position":2624,"Ex":2625,"##Contain":2626,"##omet":2627,"selector":2628,"chang":2629,"main":2630,"##action":2631,"##ources":2632,"abs":2633,"##par":2634,"21":2635,"filePath":2636,"font":2637,"##Lower":2638,"##Props":2639,"##not":2640,"ast":2641,"##Method":2642,"us":2643,"27":2644,"https":2645,"##Tem":2646,"32":2647,"##Point":2648,"##edia":2649,"##Nodes":2650,"##essages":2651,"##IT":2652,"##ottom":2653,"##ping":2654,"regex":2655,"##Fr":2656,"##Default":2657,"##Prop":2658,"clear":2659,"tree":2660,"skip":2661,"boolean":2662,"##sor":2663,"editor":2664,"import":2665,"inner":2666,"used":2667,"##ahta":2668,"className":2669,"fail":2670,"ar":2671,"##ET":2672,"##PI":2673,"##FF":2674,"##ternal":2675,"##An":2676,"##Label":2677,"##Color":2678,"##eners":2679,"some":2680,"##Mode":2681,"word":2682,"##scri":2683,"##Top":2684,"types":2685,"entity":2686,"insert":2687,"##Manager":2688,"li":2689,"access":2690,"##Inst":2691,"Reg":2692,"##LowerCase":2693,"##Log":2694,"##ud":2695,"##sp":2696,"SY":2697,"##oom":2698,"parseInt":2699,"##Types":2700,"##ME":2701,"there":2702,"modules":2703,"##Root":2704,"Number":2705,"fe":2706,"already":2707,"##qual":2708,"bundle":2709,"unit":2710,"##TION":2711,"##ANG":2712,"defined":2713,"rules":2714,"qu":2715,"pk":2716,"attrs":2717,"##Dep":2718,"extension":2719,"##ern":2720,"##ays":2721,"##ingle":2722,"##rop":2723,"##verse":2724,"##Range":2725,"step":2726,"40":2727,"##ailed":2728,"00":2729,"##Response":2730,"##ached":2731,"queue":2732,"toLowerCase":2733,"##point":2734,"##time":2735,"expected":2736,"##ear":2737,"##eturn":2738,"dist":2739,"lib":2740,"##ENT":2741,"std":2742,"##Column":2743,"pol":2744,"##uage":2745,"##loat":2746,"act":2747,"##RE":2748,"order":2749,"go":2750,"##Container":2751,"shift":2752,"trigger":2753,"##icate":2754,"bin":2755,"isN":2756,"##dir":2757,"##Hash":2758,"##rix":2759,"symbol":2760,"support":2761,"##cept":2762,"##onth":2763,"substring":2764,"em":2765,"##actory":2766,"##aded":2767,"##atrix":2768,"##etch":2769,"Cl":2770,"##Read":2771,"Pro":2772,"##Des":2773,"uri":2774,"##oding":2775,"##file":2776,"controller":2777,"tahta":2778,"fix":2779,"fin":2780,"ng":2781,"matches":2782,"##ending":2783,"##Row":2784,"non":2785,"##MP":2786,"##ocus":2787,"##Format":2788,"u0":2789,"##YP":2790,"generate":2791,"MA":2792,"##ating":2793,"hel":2794,"inv":2795,"##ODO":2796,"button":2797,"defaults":2798,"TODO":2799,"ge":2800,"##Ed":2801,"##issing":2802,"success":2803,"browser":2804,"##Link":2805,"##sh":2806,"watch":2807,"stats":2808,"##nown":2809,"##Sub":2810,"register":2811,"##atform":2812,"##resh":2813,"##Conn":2814,"##rite":2815,"##Change":2816,"##URL":2817,"graph":2818,"##ures":2819,"bound":2820,"Set":2821,"anim":2822,"Buffer":2823,"reduce":2824,"23":2825,"##bser":2826,"##mand":2827,"##etw":2828,"##Input":2829,"seg":2830,"##Left":2831,"##iss":2832,"##Stack":2833,"##itions":2834,"##bar":2835,"##Al":2836,"##amp":2837,"sin":2838,"look":2839,"##ling":2840,"##iven":2841,"##Table":2842,"encode":2843,"##Cur":2844,"##Scroll":2845,"##rypt":2846,"##iddle":2847,"pipe":2848,"##umer":2849,"parser":2850,"convert":2851,"contents":2852,"pe":2853,"##gress":2854,"##Promise":2855,"##Selector":2856,"dirname":2857,"href":2858,"##laration":2859,"buf":2860,"att":2861,"##round":2862,"##uch":2863,"relative":2864,"border":2865,"##wd":2866,"##Settings":2867,"into":2868,"core":2869,"##uc":2870,"canvas":2871,"##Spec":2872,"##ie":2873,"##LLA":2874,"##Load":2875,"MOD":2876,"##Comp":2877,"normalize":2878,"don":2879,"##Properties":2880,"##base":2881,"##Check":2882,"##0000":2883,"own":2884,"##over":2885,"given":2886,"save":2887,"Add":2888,"scale":2889,"##ta":2890,"##Json":2891,"Check":2892,"disable":2893,"rest":2894,"##hale":2895,"##Del":2896,"##aces":2897,"frame":2898,"HANG":2899,"##Body":2900,"##Group":2901,"HANGUL":2902,"##User":2903,"off":2904,"ts":2905,"##bers":2906,"##ayer":2907,"TypeError":2908,"##anch":2909,"##EventListener":2910,"SYLLA":2911,"limit":2912,"30":2913,"##reen":2914,"second":2915,"##adi":2916,"SYLLABLE":2917,"##ING":2918,"exit":2919,"operation":2920,"##tiv":2921,"deferred":2922,"Node":2923,"utf":2924,"disp":2925,"##Base":2926,"chart":2927,"Function":2928,"##10":2929,"Cont":2930,"##Is":2931,"ui":2932,"##js":2933,"##que":2934,"cell":2935,"##roy":2936,"UR":2937,"STACK":2938,"sv":2939,"pkg":2940,"##Scope":2941,"##RR":2942,"##ulate":2943,"##Level":2944,"##oolean":2945,"##ails":2946,"Event":2947,"##El":2948,"##ests":2949,"comment":2950,"exports":2951,"namespace":2952,"##TC":2953,"##Dis":2954,"##hr":2955,"##ables":2956,"##air":2957,"##TED":2958,"No":2959,"##gg":2960,"##reate":2961,"span":2962,"##enu":2963,"may":2964,"storage":2965,"am":2966,"touch":2967,"selected":2968,"##ailable":2969,"charac":2970,"include":2971,"##Header":2972,"EN":2973,"sm":2974,"chain":2975,"device":2976,"metadata":2977,"##Update":2978,"same":2979,"directory":2980,"parameter":2981,"##assed":2982,"where":2983,"high":2984,"mo":2985,"##PA":2986,"click":2987,"##Axis":2988,"public":2989,"##ization":2990,"##Template":2991,"##lease":2992,"##Utils":2993,"##tex":2994,"##Filter":2995,"##erenc":2996,"part":2997,"cor":2998,"mouse":2999,"##Min":3000,"flags":3001,"##down":3002,"Invalid":3003,"##Arr":3004,"common":3005,"##ocol":3006,"loop":3007,"##ometry":3008,"RegExp":3009,"##ble":3010,"cwd":3011,"onc":3012,"##Box":3013,"RE":3014,"round":3015,"bas":3016,"styles":3017,"##trl":3018,"clean":3019,"pres":3020,"anc":3021,"##Ver":3022,"##clu":3023,"##ULE":3024,"auto":3025,"fill":3026,"##Service":3027,"layout":3028,"tool":3029,"selection":3030,"##iteral":3031,"##cape":3032,"methods":3033,"##CT":3034,"super":3035,"cursor":3036,"indent":3037,"job":3038,"##lers":3039,"static":3040,"angular":3041,"##Page":3042,"##lint":3043,"##iler":3044,"##sure":3045,"Ql":3046,"##enter":3047,"CON":3048,"##CE":3049,"bytes":3050,"reset":3051,"##urum":3052,"##HTML":3053,"28":3054,"proxy":3055,"provide":3056,"##ert":3057,"##Rect":3058,"reference":3059,"##ission":3060,"##11":3061,"platform":3062,"Get":3063,"33":3064,"##ective":3065,"Res":3066,"To":3067,"void":3068,"##ideo":3069,"bottom":3070,"##gin":3071,"##criptor":3072,"report":3073,"##izer":3074,"##Ht":3075,"rows":3076,"##itable":3077,"Par":3078,"dig":3079,"##Prefix":3080,"sync":3081,"##YPE":3082,"setTimeout":3083,"down":3084,"##pm":3085,"##Over":3086,"upd":3087,"##adius":3088,"##TOP":3089,"alias":3090,"depth":3091,"##gram":3092,"transl":3093,"place":3094,"##Server":3095,"kind":3096,"##Bind":3097,"##Elements":3098,"definition":3099,"##box":3100,"##gend":3101,"##Instance":3102,"term":3103,"language":3104,"##Interval":3105,"##Render":3106,"layer":3107,"sim":3108,"single":3109,"internal":3110,"padding":3111,"bec":3112,"##ision":3113,"##yn":3114,"##ialog":3115,"##idden":3116,"36":3117,"##New":3118,"##andom":3119,"##AAAA":3120,"listener":3121,"##Symbol":3122,"##OW":3123,"splice":3124,"##ugh":3125,"##LS":3126,"##rough":3127,"##ancel":3128,"##18":3129,"iterator":3130,"readFile":3131,"##ants":3132,"connect":3133,"duration":3134,"using":3135,"just":3136,"categ":3137,"##thing":3138,"##Su":3139,"asset":3140,"##stem":3141,"##12":3142,"move":3143,"gu":3144,"##side":3145,"##Before":3146,"been":3147,"##teger":3148,"##Pack":3149,"##ility":3150,"##Paths":3151,"##rent":3152,"##ted":3153,"Return":3154,"encoding":3155,"domain":3156,"track":3157,"##ounter":3158,"svg":3159,"STACKTOP":3160,"##Tim":3161,"dev":3162,"tags":3163,"En":3164,"sum":3165,"messages":3166,"draw":3167,"final":3168,"fileName":3169,"##argin":3170,"##flow":3171,"more":3172,"tw":3173,"createElement":3174,"subscri":3175,"##Poin":3176,"##Ad":3177,"ihale":3178,"##Space":3179,"Se":3180,"rect":3181,"##ume":3182,"##Command":3183,"ID":3184,"print":3185,"hex":3186,"##iddlew":3187,"##Document":3188,"sq":3189,"##Status":3190,"points":3191,"##ret":3192,"calc":3193,"diff":3194,"##EB":3195,"##aterial":3196,"##Dom":3197,"pointer":3198,"##Address":3199,"URL":3200,"##Max":3201,"extract":3202,"ready":3203,"prep":3204,"byte":3205,"nav":3206,"##Fl":3207,"star":3208,"##UN":3209,"region":3210,"##TT":3211,"protocol":3212,"Web":3213,"eval":3214,"29":3215,"##eep":3216,"##emove":3217,"failed":3218,"##apter":3219,"Lo":3220,"##Rout":3221,"##ground":3222,"flo":3223,"##known":3224,"TH":3225,"optional":3226,"##Chang":3227,"comput":3228,"##Image":3229,"Tr":3230,"destroy":3231,"dependencies":3232,"##Opts":3233,"0x00":3234,"stdout":3235,"##oo":3236,"px":3237,"##Option":3238,"pan":3239,"parentNode":3240,"finish":3241,"blob":3242,"##des":3243,"##Paramet":3244,"resolved":3245,"rece":3246,"see":3247,"##20":3248,"compile":3249,"password":3250,"created":3251,"##Task":3252,"##cl":3253,"desc":3254,"##ution":3255,"origin":3256,"MODULE":3257,"API":3258,"##Right":3259,"##Next":3260,"##ning":3261,"##Auth":3262,"##very":3263,"##itive":3264,"space":3265,"here":3266,"prim":3267,"##Scale":3268,"##ique":3269,"fetch":3270,"##Directory":3271,"##hor":3272,"called":3273,"##EX":3274,"##gate":3275,"##Empty":3276,"specified":3277,"xml":3278,"hook":3279,"##pts":3280,"eslint":3281,"##agment":3282,"inject":3283,"##wise":3284,"##OL":3285,"##erences":3286,"##aN":3287,"Boolean":3288,"##ception":3289,"existing":3290,"ensure":3291,"##TH":3292,"##Meta":3293,"##Bound":3294,"Def":3295,"org":3296,"extra":3297,"##Ids":3298,"media":3299,"its":3300,"##JSON":3301,"prod":3302,"##plic":3303,"200":3304,"because":3305,"tick":3306,"img":3307,"##estamp":3308,"##Seg":3309,"##Rule":3310,"variable":3311,"actual":3312,"lat":3313,"statusCode":3314,"appendChild":3315,"##Pr":3316,"##bo":3317,"##afe":3318,"##AG":3319,"##Queue":3320,"sn":3321,"remote":3322,"box":3323,"##een":3324,"##ential":3325,"force":3326,"coord":3327,"missing":3328,"##tries":3329,"once":3330,"Id":3331,"dim":3332,"##Statement":3333,"example":3334,"plugins":3335,"passed":3336,"##ten":3337,"##alem":3338,"##Per":3339,"prevent":3340,"##pack":3341,"NO":3342,"you":3343,"addEventListener":3344,"Data":3345,"##Resol":3346,"branch":3347,"available":3348,"##Sl":3349,"##AB":3350,"##55":3351,"execute":3352,"##SE":3353,"##Det":3354,"floor":3355,"##tim":3356,"Exp":3357,"##Store":3358,"locale":3359,"##Children":3360,"long":3361,"ERR":3362,"wait":3363,"1000":3364,"##ffix":3365,"cy":3366,"cf":3367,"##Var":3368,"coll":3369,"##ade":3370,"##Unit":3371,"##ites":3372,"application":3373,"serial":3374,"dispatch":3375,"34":3376,"win":3377,"HEAP8":3378,"axis":3379,"bit":3380,"##JS":3381,"cook":3382,"notif":3383,"identifier":3384,"##istory":3385,"cached":3386,"60":3387,"##bs":3388,"complete":3389,"##Wrap":3390,"##px":3391,"WEB":3392,"utf8":3393,"focus":3394,"##ool":3395,"partial":3396,"##Output":3397,"isObject":3398,"objects":3399,"iss":3400,"##ifier":3401,"##irect":3402,"31":3403,"compare":3404,"##EL":3405,"##Script":3406,"##Hel":3407,"mix":3408,"##Ind":3409,"50":3410,"##ORTED":3411,"##Get":3412,"##eted":3413,"random":3414,"##aster":3415,"##First":3416,"##Wh":3417,"##olute":3418,"delta":3419,"##No":3420,"dat":3421,"For":3422,"icon":3423,"argv":3424,"invok":3425,"##ward":3426,"walk":3427,"them":3428,"contains":3429,"##Oper":3430,"my":3431,"##ntax":3432,"##ived":3433,"equal":3434,"##Run":3435,"##ixel":3436,"role":3437,"pref":3438,"IMP":3439,"operator":3440,"isFunction":3441,"##Process":3442,"##iddleware":3443,"##Pattern":3444,"slot":3445,"##Events":3446,"decode":3447,"##Entry":3448,"pending":3449,"##ture":3450,"##After":3451,"##ck":3452,"configuration":3453,"##Func":3454,"##lif":3455,"isString":3456,"assoc":3457,"##ngine":3458,"##IC":3459,"0x0":3460,"##eklif":3461,"chalk":3462,"hide":3463,"##IS":3464,"##tination":3465,"npm":3466,"listeners":3467,"through":3468,"tagName":3469,"##edi":3470,"than":3471,"DOM":3472,"##We":3473,"expect":3474,"##clude":3475,"##Tree":3476,"##ested":3477,"control":3478,"##ride":3479,"##PACK":3480,"##ises":3481,"##eet":3482,"charAt":3483,"SIG":3484,"username":3485,"##get":3486,"##ics":3487,"Val":3488,"##Sec":3489,"interval":3490,"PR":3491,"##ODE":3492,"native":3493,"##Frame":3494,"batch":3495,"since":3496,"ok":3497,"attach":3498,"35":3499,"dst":3500,"remo":3501,"##udio":3502,"##face":3503,"##irc":3504,"proto":3505,"drag":3506,"##Items":3507,"separ":3508,"flat":3509,"##ermission":3510,"##Sign":3511,"author":3512,"day":3513,"##Not":3514,"pred":3515,"##unt":3516,"Wh":3517,"ms":3518,"##itional":3519,"export":3520,"WEBPACK":3521,"##ous":3522,"short":3523,"changed":3524,"character":3525,"columns":3526,"help":3527,"##ptions":3528,"##Be":3529,"loader":3530,"TYPE":3531,"##ored":3532,"##ld":3533,"##Prov":3534,"shad":3535,"##Parts":3536,"##cc":3537,"FI":3538,"##urs":3539,"##ires":3540,"cancel":3541,"verb":3542,"endpoint":3543,"IMPORTED":3544,"##Stats":3545,"Ap":3546,"##Bytes":3547,"##Schema":3548,"owner":3549,"An":3550,"und":3551,"video":3552,"##URI":3553,"##App":3554,"##ged":3555,"Sy":3556,"##roups":3557,"begin":3558,"##ched":3559,"##Rel":3560,"##AME":3561,"cp":3562,"edge":3563,"##Idx":3564,"##allback":3565,"every":3566,"delay":3567,"NON":3568,"##actor":3569,"##tc":3570,"##Constr":3571,"##Attributes":3572,"##iti":3573,"vertex":3574,"##gb":3575,"##Declaration":3576,"margin":3577,"xhr":3578,"##roke":3579,"cr":3580,"router":3581,"loaded":3582,"##ason":3583,"provided":3584,"##Float":3585,"##Lo":3586,"our":3587,"month":3588,"##tices":3589,"##rid":3590,"deps":3591,"trace":3592,"components":3593,"png":3594,"##ways":3595,"section":3596,"##Full":3597,"includes":3598,"Vk":3599,"##ific":3600,"##Open":3601,"##35":3602,"##Fields":3603,"rot":3604,"Create":3605,"##ges":3606,"signature":3607,"Log":3608,"##ities":3609,"center":3610,"ip":3611,"obser":3612,"commit":3613,"material":3614,"##andid":3615,"##ifest":3616,"none":3617,"##Co":3618,"category":3619,"##Last":3620,"##Regis":3621,"Mod":3622,"like":3623,"##ernal":3624,"provider":3625,"classes":3626,"##Flag":3627,"64":3628,"##az":3629,"##ency":3630,"##ators":3631,"background":3632,"defineProperty":3633,"##ero":3634,"##ply":3635,"bar":3636,"fire":3637,"git":3638,"##utton":3639,"feature":3640,"destination":3641,"##rec":3642,"segment":3643,"ws":3644,"##UT":3645,"##Mark":3646,"program":3647,"##ouch":3648,"##ank":3649,"##rary":3650,"##ging":3651,"##Emit":3652,"##Modules":3653,"44":3654,"##atio":3655,"evt":3656,"##24":3657,"escape":3658,"##Active":3659,"descriptor":3660,"worker":3661,"##Msg":3662,"##Rules":3663,"resp":3664,"##Plugin":3665,"##ollow":3666,"##Dependenc":3667,"##entic":3668,"##vices":3669,"DEF":3670,"SE":3671,"##uid":3672,"##Prot":3673,"##Listeners":3674,"anchor":3675,"##Control":3676,"##eded":3677,"##so":3678,"##sible":3679,"##Vari":3680,"enable":3681,"expand":3682,"##Argument":3683,"strict":3684,"##cent":3685,"37":3686,"##ynam":3687,"poly":3688,"Sh":3689,"##ared":3690,"##Async":3691,"##Num":3692,"prec":3693,"Requ":3694,"48":3695,"validation":3696,"wrapper":3697,"##Build":3698,"##Changed":3699,"##ULT":3700,"geometry":3701,"dbQ":3702,"##quence":3703,"##Regex":3704,"Ser":3705,"sure":3706,"##If":3707,"progress":3708,"Class":3709,"added":3710,"EX":3711,"##tip":3712,"##min":3713,"##Enc":3714,"keep":3715,"##sc":3716,"##nect":3717,"enabled":3718,"##Record":3719,"dependency":3720,"##Work":3721,"##ibling":3722,"##ithub":3723,"HTML":3724,"MAX":3725,"inline":3726,"##Location":3727,"##Br":3728,"setup":3729,"legend":3730,"##Only":3731,"kp":3732,"##tp":3733,"translate":3734,"real":3735,"##ongo":3736,"##Button":3737,"##light":3738,"getAttribute":3739,"##redential":3740,"##osed":3741,"grid":3742,"File":3743,"want":3744,"enumer":3745,"##pload":3746,"##ma":3747,"##imum":3748,"filepath":3749,"year":3750,"##Html":3751,"##Project":3752,"##Vis":3753,"side":3754,"handlers":3755,"put":3756,"binding":3757,"38":3758,"##Conf":3759,"declar":3760,"callbacks":3761,"changes":3762,"##etween":3763,"colors":3764,"##bu":3765,"theme":3766,"transaction":3767,"##000":3768,"##Extension":3769,"PO":3770,"##25":3771,"##lose":3772,"##sl":3773,"##Parser":3774,"animation":3775,"disabled":3776,"##etwork":3777,"hidden":3778,"factory":3779,"On":3780,"##Action":3781,"setAttribute":3782,"lower":3783,"SIGN":3784,"##Test":3785,"ctrl":3786,"reverse":3787,"unique":3788,"0x1":3789,"charCode":3790,"##Lines":3791,"##Upper":3792,"##Connection":3793,"clos":3794,"drop":3795,"##Title":3796,"grunt":3797,"UN":3798,"vm":3799,"##rect":3800,"##oder":3801,"##upport":3802,"integer":3803,"repe":3804,"profile":3805,"always":3806,"follow":3807,"NLS":3808,"##TER":3809,"##TR":3810,"##Back":3811,"he":3812,"capture":3813,"##Cell":3814,"binary":3815,"without":3816,"##Definition":3817,"allowed":3818,"dialog":3819,"##UM":3820,"##One":3821,"ce":3822,"Pl":3823,"##ists":3824,"##Errors":3825,"texture":3826,"abort":3827,"PA":3828,"##Dr":3829,"##99":3830,"##lec":3831,"matched":3832,"##iform":3833,"##Err":3834,"adapter":3835,"##Binding":3836,"timer":3837,"updated":3838,"kalem":3839,"##Down":3840,"##Click":3841,"##Factory":3842,"exist":3843,"listen":3844,"redirect":3845,"github":3846,"matrix":3847,"install":3848,"##Channel":3849,"##Current":3850,"##Contents":3851,"timestamp":3852,"pair":3853,"##imal":3854,"##Helper":3855,"##ump":3856,"eventName":3857,"lookup":3858,"addClass":3859,"refresh":3860,"models":3861,"writeFile":3862,"differ":3863,"distance":3864,"##tn":3865,"##plates":3866,"##ples":3867,"docs":3868,"##ffect":3869,"##iting":3870,"##AULT":3871,"##atures":3872,"##pha":3873,"they":3874,"##mbed":3875,"##rame":3876,"functions":3877,"##eps":3878,"cannot":3879,"marker":3880,"supported":3881,"needs":3882,"##len":3883,"DEFAULT":3884,"##sers":3885,"##Socket":3886,"##ze":3887,"##LO":3888,"##Mem":3889,"direction":3890,"lastIndex":3891,"##Ret":3892,"readFileSync":3893,"##SI":3894,"ERROR":3895,"Nm":3896,"##CH":3897,"instead":3898,"##Imp":3899,"visit":3900,"##Word":3901,"##Window":3902,"folder":3903,"JS":3904,"database":3905,"rgb":3906,"##Tick":3907,"##Local":3908,"isValid":3909,"##Transform":3910,"condition":3911,"##Tab":3912,"##Part":3913,"##Dict":3914,"##mt":3915,"##Route":3916,"##Coord":3917,"annot":3918,"moduleName":3919,"reason":3920,"ids":3921,"##80":3922,"transition":3923,"##Month":3924,"retry":3925,"verify":3926,"topic":3927,"agent":3928,"ns":3929,"##Selection":3930,"256":3931,"rol":3932,"viewport":3933,"renderer":3934,"##Resource":3935,"##Entity":3936,"##Anim":3937,"enumerable":3938,"NODE":3939,"##map":3940,"##Search":3941,"##14":3942,"Core":3943,"##ical":3944,"THRE":3945,"email":3946,"##vers":3947,"##Iter":3948,"##Div":3949,"45":3950,"Col":3951,"wid":3952,"##Port":3953,"##AM":3954,"##iers":3955,"53":3956,"##Fe":3957,"##run":3958,"OP":3959,"Remove":3960,"##Storage":3961,"zip":3962,"##fer":3963,"##md":3964,"absolute":3965,"##ulp":3966,"##Collection":3967,"##derr":3968,"39":3969,"radius":3970,"##Ass":3971,"##15":3972,"##redentials":3973,"##Dist":3974,"details":3975,"##formation":3976,"##aining":3977,"##iron":3978,"##UpperCase":3979,"##Provider":3980,"##Identifier":3981,"##Results":3982,"associ":3983,"##Equal":3984,"##tract":3985,"multiple":3986,"##medi":3987,"Map":3988,"stroke":3989,"Sc":3990,"##Bar":3991,"##uction":3992,"suffix":3993,"basename":3994,"##cket":3995,"mapping":3996,"doesn":3997,"sample":3998,"##Matrix":3999,"ua":4000,"##19":4001,"stderr":4002,"##uster":4003,"isNaN":4004,"IE":4005,"existsSync":4006,"did":4007,"##holder":4008,"##Headers":4009,"42":4010,"getTime":4011,"##ById":4012,"history":4013,"ii":4014,"##andidate":4015,"##type":4016,"##Lay":4017,"##df":4018,"##entation":4019,"comb":4020,"deep":4021,"##FilePath":4022,"cfg":4023,"##Ag":4024,"##Comment":4025,"##Di":4026,"##rypto":4027,"respon":4028,"align":4029,"LO":4030,"##ves":4031,"invoke":4032,"Module":4033,"peer":4034,"special":4035,"##ross":4036,"writable":4037,"58":4038,"emitter":4039,"foo":4040,"##CTION":4041,"##oriz":4042,"rev":4043,"##ixed":4044,"directive":4045,"removed":4046,"##key":4047,"idler":4048,"De":4049,"##lay":4050,"Content":4051,"##UG":4052,"toUpperCase":4053,"cas":4054,"entries":4055,"##reg":4056,"##used":4057,"links":4058,"override":4059,"Component":4060,"Util":4061,"##Mouse":4062,"inher":4063,"##Undefined":4064,"fragment":4065,"##aly":4066,"ans":4067,"gulp":4068,"patch":4069,"could":4070,"lead":4071,"##Normal":4072,"##Layer":4073,"configur":4074,"##tical":4075,"##fin":4076,"tasks":4077,"secret":4078,"##VE":4079,"##amed":4080,"two":4081,"pathname":4082,"shape":4083,"also":4084,"mk":4085,"mixin":4086,"middleware":4087,"teklif":4088,"##Folder":4089,"##Access":4090,"subject":4091,"actions":4092,"##ither":4093,"related":4094,"warning":4095,"##30":4096,"perform":4097,"cookie":4098,"46":4099,"dot":4100,"##amer":4101,"##ategy":4102,"##Api":4103,"##Points":4104,"##atal":4105,"##alled":4106,"##Enabled":4107,"account":4108,"webpack":4109,"starts":4110,"##ances":4111,"engine":4112,"ceil":4113,"##Pol":4114,"gen":4115,"parseFloat":4116,"exclude":4117,"##Tool":4118,"loading":4119,"##shift":4120,"##mediate":4121,"resources":4122,"inside":4123,"pid":4124,"##Font":4125,"##aint":4126,"##Orig":4127,"again":4128,"##Track":4129,"safe":4130,"possible":4131,"release":4132,"commands":4133,"otherwise":4134,"##node":4135,"outer":4136,"##DB":4137,"##entity":4138,"isIn":4139,"publish":4140,"##Red":4141,"##Found":4142,"accept":4143,"##auth":4144,"All":4145,"alg":4146,"navig":4147,"##48":4148,"amount":4149,"##mary":4150,"dimension":4151,"##Literal":4152,"##HA":4153,"visible":4154,"jav":4155,"##ithm":4156,"##inates":4157,"##ether":4158,"series":4159,"##cessed":4160,"261":4161,"tx":4162,"comments":4163,"uns":4164,"##Hook":4165,"##ority":4166,"##Controller":4167,"##awn":4168,"querySelector":4169,"unknown":4170,"##Package":4171,"AN":4172,"io":4173,"sched":4174,"##Progress":4175,"external":4176,"##Texture":4177,"##ailing":4178,"##Emitter":4179,"kurum":4180,"##lee":4181,"##lobal":4182,"##ggle":4183,"oSettings":4184,"##Can":4185,"COM":4186,"##Order":4187,"##app":4188,"##ually":4189,"##ese":4190,"##ours":4191,"##tu":4192,"##Registry":4193,"datas":4194,"56":4195,"bits":4196,"master":4197,"charCodeAt":4198,"menu":4199,"sql":4200,"keyword":4201,"zoom":4202,"##US":4203,"47":4204,"##ended":4205,"##acity":4206,"isS":4207,"routes":4208,"##ene":4209,"##ironment":4210,"system":4211,"running":4212,"angle":4213,"Use":4214,"TO":4215,"prepare":4216,"thing":4217,"returned":4218,"##just":4219,"nodeName":4220,"hostname":4221,"variables":4222,"##RegExp":4223,"vars":4224,"##exp":4225,"flatten":4226,"circ":4227,"##oy":4228,"##orter":4229,"##rt":4230,"declaration":4231,"##onds":4232,"your":4233,"##err":4234,"##itespace":4235,"Up":4236,"promises":4237,"callee":4238,"calculate":4239,"constants":4240,"##RI":4241,"##anges":4242,"##orithm":4243,"pixel":4244,"sil":4245,"##plicit":4246,"##Close":4247,"##ural":4248,"##Host":4249,"filters":4250,"It":4251,"##Lang":4252,"##Limit":4253,"verbose":4254,"##Dependencies":4255,"##less":4256,"digest":4257,"Hand":4258,"##pos":4259,"unshift":4260,"predicate":4261,"groups":4262,"##pol":4263,"##Day":4264,"uniform":4265,"CH":4266,"##Bin":4267,"##ouble":4268,"cs":4269,"52":4270,"counter":4271,"##Year":4272,"generator":4273,"##Parameter":4274,"v1":4275,"##gon":4276,"##17":4277,"##utable":4278,"sep":4279,"NAME":4280,"##Expr":4281,"##Touch":4282,"##Styles":4283,"##Metadata":4284,"computed":4285,"Trans":4286,"As":4287,"upper":4288,"initialize":4289,"##place":4290,"##Are":4291,"##ria":4292,"lc":4293,"sources":4294,"##list":4295,"alert":4296,"repeat":4297,"##tives":4298,"nodeType":4299,"##Ar":4300,"##EY":4301,"play":4302,"os":4303,"normalized":4304,"##ike":4305,"ww":4306,"##Multi":4307,"##ights":4308,"tooltip":4309,"lock":4310,"##AP":4311,"##erred":4312,"crypto":4313,"sha":4314,"##Prev":4315,"pt":4316,"cho":4317,"simple":4318,"nested":4319,"##Wrapper":4320,"elm":4321,"##Inc":4322,"##MENT":4323,"statement":4324,"GET":4325,"pick":4326,"accum":4327,"primary":4328,"network":4329,"##Locale":4330,"innerHTML":4331,"##AD":4332,"##40":4333,"dele":4334,"download":4335,"Qn":4336,"library":4337,"x1":4338,"##IL":4339,"prob":4340,"mask":4341,"##icy":4342,"exception":4343,"##link":4344,"72":4345,"##API":4346,"##Tags":4347,"43":4348,"du":4349,"##Src":4350,"extensions":4351,"Returns":4352,"tile":4353,"49":4354,"##iod":4355,"##FileName":4356,"##Tokens":4357,"iterate":4358,"##AT":4359,"CSS":4360,"jQuery":4361,"classList":4362,"pages":4363,"##Ct":4364,"##67":4365,"##ely":4366,"methodName":4367,"##Cap":4368,"##Graph":4369,"zero":4370,"##Dim":4371,"lex":4372,"##Pri":4373,"##ogle":4374,"base64":4375,"##pr":4376,"repo":4377,"##Write":4378,"optim":4379,"preventDefault":4380,"mock":4381,"##hav":4382,"##da":4383,"##ATA":4384,"##ving":4385,"game":4386,"strip":4387,"80":4388,"##inate":4389,"##orizont":4390,"##Qu":4391,"##irt":4392,"attrib":4393,"##tivity":4394,"Request":4395,"SU":4396,"recurs":4397,"##utes":4398,"white":4399,"##Layout":4400,"DI":4401,"##roid":4402,"0xB":4403,"##Css":4404,"##izes":4405,"being":4406,"manifest":4407,"##reshold":4408,"##Aut":4409,"manager":4410,"Token":4411,"##ls":4412,"car":4413,"declarations":4414,"##n1":4415,"fixed":4416,"##WS":4417,"0xC":4418,"edit":4419,"##Details":4420,"##TTP":4421,"##agger":4422,"childNodes":4423,"coun":4424,"embed":4425,"dri":4426,"##Pan":4427,"builder":4428,"implement":4429,"##DER":4430,"propName":4431,"sap":4432,"##Menu":4433,"##peed":4434,"resize":4435,"collect":4436,"refs":4437,"uuid":4438,"##Segment":4439,"td":4440,"specific":4441,"avoid":4442,"correct":4443,"fullPath":4444,"##havi":4445,"##ipher":4446,"overflow":4447,"newValue":4448,"based":4449,"##to":4450,"highlight":4451,"sav":4452,"##Radius":4453,"evalu":4454,"##uring":4455,"times":4456,"##Web":4457,"##orizontal":4458,"mut":4459,"upload":4460,"templates":4461,"##Columns":4462,"##ESS":4463,"57":4464,"##Bottom":4465,"##ynamic":4466,"cos":4467,"uid":4468,"##fil":4469,"54":4470,"KEY":4471,"##UE":4472,"##emo":4473,"literal":4474,"sourceCode":4475,"what":4476,"defaultValue":4477,"##Done":4478,"locals":4479,"Default":4480,"enter":4481,"members":4482,"pers":4483,"##22":4484,"react":4485,"180":4486,"separator":4487,"notify":4488,"##ATE":4489,"sink":4490,"##kit":4491,"seen":4492,"requires":4493,"got":4494,"##hip":4495,"##vable":4496,"##Parameters":4497,"bro":4498,"##jection":4499,"subscribe":4500,"struct":4501,"##sertion":4502,"##Constructor":4503,"bid":4504,"toggle":4505,"##gnore":4506,"##iber":4507,"##Methods":4508,"words":4509,"React":4510,"##expected":4511,"##amples":4512,"regexp":4513,"##board":4514,"www":4515,"sent":4516,"mkdir":4517,"Not":4518,"Ref":4519,"##Focus":4520,"##DF":4521,"bounds":4522,"##Ge":4523,"strings":4524,"checked":4525,"Call":4526,"##tl":4527,"##ii":4528,"##irtual":4529,"between":4530,"##cle":4531,"thisArg":4532,"##amera":4533,"##rie":4534,"helper":4535,"pow":4536,"##Media":4537,"##amb":4538,"##Env":4539,"free":4540,"##AS":4541,"##Init":4542,"sem":4543,"##Sibling":4544,"55":4545,"isEmpty":4546,"login":4547,"Valid":4548,"den":4549,"##ql":4550,"relation":4551,"##Canvas":4552,"deprec":4553,"##iction":4554,"addr":4555,"parents":4556,"chars":4557,"d3":4558,"##ux":4559,"##rome":4560,"validator":4561,"##TS":4562,"##tities":4563,"##ections":4564,"Sp":4565,"##Session":4566,"reader":4567,"inherit":4568,"both":4569,"Key":4570,"Rec":4571,"##Bl":4572,"##Loader":4573,"##Success":4574,"##AY":4575,"determ":4576,"##18n":4577,"##Operation":4578,"41":4579,"float":4580,"sk":4581,"##initions":4582,"PI":4583,"##Obser":4584,"##LI":4585,"either":4586,"placeholder":4587,"u1":4588,"##acing":4589,"runtime":4590,"registry":4591,"gly":4592,"pub":4593,"##code":4594,"##aced":4595,"player":4596,"##Complete":4597,"67":4598,"enum":4599,"labels":4600,"##ram":4601,"##Ratio":4602,"##36":4603,"##Display":4604,"kn":4605,"##asure":4606,"##Shad":4607,"permission":4608,"##ulator":4609,"subs":4610,"##38":4611,"##Indent":4612,"500":4613,"tra":4614,"remaining":4615,"alpha":4616,"##Selected":4617,"transport":4618,"df":4619,"insp":4620,"##Pad":4621,"area":4622,"incre":4623,"HTTP":4624,"plain":4625,"plot":4626,"##esh":4627,"##ily":4628,"needed":4629,"calls":4630,"decor":4631,"##lex":4632,"compute":4633,"##RT":4634,"##ech":4635,"slide":4636,"removeClass":4637,"reply":4638,"supp":4639,"##Editor":4640,"59":4641,"##Sort":4642,"shared":4643,"users":4644,"typ":4645,"isUndefined":4646,"##eme":4647,"bucket":4648,"##Return":4649,"##ms":4650,"##mark":4651,"##Create":4652,"getElement":4653,"serialize":4654,"##Area":4655,"bel":4656,"##This":4657,"Met":4658,"##IZ":4659,"##Depth":4660,"vec":4661,"##Ctrl":4662,"##Step":4663,"snap":4664,"ec":4665,"##tt":4666,"##int8":4667,"ele":4668,"mon":4669,"##Attrs":4670,"helpers":4671,"via":4672,"cluster":4673,"##ueries":4674,"cross":4675,"seed":4676,"##ov":4677,"##Lib":4678,"##Asset":4679,"Note":4680,"txt":4681,"would":4682,"##Messages":4683,"##aniti":4684,"##Ph":4685,"##Js":4686,"##apsed":4687,"units":4688,"##gh":4689,"reduc":4690,"##Agent":4691,"##Animation":4692,"ve":4693,"indic":4694,"agg":4695,"##Gener":4696,"##anded":4697,"##ploy":4698,"propertyName":4699,"AST":4700,"audio":4701,"low":4702,"##iver":4703,"##cap":4704,"##jax":4705,"##odash":4706,"##estor":4707,"cert":4708,"##CSS":4709,"contentType":4710,"views":4711,"##Rows":4712,"66":4713,"##aiting":4714,"##ibility":4715,"requests":4716,"##Uri":4717,"##Pointer":4718,"additional":4719,"redis":4720,"##upported":4721,"Al":4722,"FS":4723,"##ses":4724,"##pro":4725,"##oints":4726,"within":4727,"compiler":4728,"attem":4729,"Model":4730,"eas":4731,"sig":4732,"site":4733,"##stan":4734,"##ilities":4735,"weight":4736,"Pre":4737,"##jmp":4738,"setting":4739,"##Handlers":4740,"##plicate":4741,"compar":4742,"room":4743,"information":4744,"sequence":4745,"##Vars":4746,"bad":4747,"rad":4748,"##till":4749,"isF":4750,"numer":4751,"ends":4752,"references":4753,"userId":4754,"##tics":4755,"##eler":4756,"compl":4757,"adjust":4758,"i18n":4759,"blue":4760,"##Timer":4761,"##Assign":4762,"##ectives":4763,"edges":4764,"Base":4765,"analy":4766,"##Builder":4767,"fallback":4768,"##Initial":4769,"discon":4770,"##Ready":4771,"##Delay":4772,"different":4773,"ll":4774,"90":4775,"ques":4776,"##VER":4777,"##finity":4778,"nb":4779,"##Chunk":4780,"##Comments":4781,"gre":4782,"occ":4783,"##ness":4784,"##Ang":4785,"##2D":4786,"##Proxy":4787,"AL":4788,"Make":4789,"##gl":4790,"##60":4791,"##write":4792,"##ense":4793,"stand":4794,"##Chain":4795,"delimit":4796,"blocks":4797,"##mutable":4798,"tests":4799,"##33":4800,"these":4801,"##ification":4802,"algorithm":4803,"List":4804,"ps":4805,"##ories":4806,"generated":4807,"EV":4808,"vararg":4809,"##uler":4810,"fieldName":4811,"connected":4812,"environment":4813,"##Visible":4814,"yAxis":4815,"steps":4816,"matching":4817,"##Mapping":4818,"##Global":4819,"spawn":4820,"##Debug":4821,"characters":4822,"later":4823,"lodash":4824,"pool":4825,"flush":4826,"Entity":4827,"FR":4828,"Im":4829,"extends":4830,"quote":4831,"##Desc":4832,"When":4833,"85":4834,"##Configuration":4835,"ax":4836,"lon":4837,"##Domain":4838,"##ym":4839,"versions":4840,"te":4841,"##Mask":4842,"Ext":4843,"##igr":4844,"processed":4845,"asn1":4846,"relations":4847,"maybe":4848,"NOT":4849,"User":4850,"yet":4851,"##Dest":4852,"##Filename":4853,"XML":4854,"scripts":4855,"pi":4856,"direct":4857,"##annot":4858,"##Deep":4859,"received":4860,"##47":4861,"closed":4862,"##shot":4863,"tm":4864,"authentic":4865,"bund":4866,"##Deps":4867,"Do":4868,"##gative":4869,"##Duration":4870,"##Objects":4871,"##TY":4872,"whether":4873,"less":4874,"clearTimeout":4875,"vertices":4876,"##Ne":4877,"##Job":4878,"indices":4879,"Handle":4880,"##Custom":4881,"##Const":4882,"nothing":4883,"##Matches":4884,"Yk":4885,"##no":4886,"pane":4887,"##Variable":4888,"##ful":4889,"##Remove":4890,"too":4891,"percent":4892,"summary":4893,"hooks":4894,"##pc":4895,"proc":4896,"selectors":4897,"EventEmitter":4898,"##URIComponent":4899,"##erge":4900,"##ecess":4901,"identity":4902,"##EXT":4903,"##Distance":4904,"##ips":4905,"##irm":4906,"##Trace":4907,"##NS":4908,"modified":4909,"##Exists":4910,"##Arguments":4911,"Update":4912,"Cannot":4913,"mongo":4914,"schem":4915,"##Like":4916,"ctor":4917,"shader":4918,"chunks":4919,"gm":4920,"##Device":4921,"63":4922,"Message":4923,"##Fixed":4924,"##Counter":4925,"urun":4926,"##Sum":4927,"##ability":4928,"until":4929,"Config":4930,"startsWith":4931,"Option":4932,"AWS":4933,"##eer":4934,"##ough":4935,"##tify":4936,"restore":4937,"modal":4938,"filtered":4939,"still":4940,"Infinity":4941,"##Transition":4942,"take":4943,"##ecting":4944,"##amel":4945,"128":4946,"##Logger":4947,"segments":4948,"sset":4949,"##Term":4950,"##hs":4951,"trailing":4952,"##abilities":4953,"655":4954,"Int":4955,"##Fiber":4956,"##card":4957,"tod":4958,"##Handle":4959,"sorted":4960,"##Copy":4961,"##plit":4962,"##SC":4963,"##havior":4964,"p1":4965,"##Elem":4966,"##head":4967,"isDirectory":4968,"arch":4969,"credentials":4970,"y1":4971,"##iders":4972,"##Prototype":4973,"##Diff":4974,"answ":4975,"##28":4976,"recon":4977,"wrapped":4978,"Unknown":4979,"under":4980,"dt":4981,"yield":4982,"##bound":4983,"##alc":4984,"##rowsers":4985,"alt":4986,"##arih":4987,"repos":4988,"##Alias":4989,"##ambda":4990,"TR":4991,"latest":4992,"Only":4993,"65":4994,"Read":4995,"##Move":4996,"##Reference":4997,"ca":4998,"onError":4999,"127":5000,"##Place":5001,"##Drag":5002,"END":5003,"way":5004,"##Raw":5005,"baseUrl":5006,"##Loaded":5007,"75":5008,"Text":5009,"pin":5010,"##Pass":5011,"getValue":5012,"##Span":5013,"##olders":5014,"Comp":5015,"##Pair":5016,"decl":5017,"repres":5018,"##Segments":5019,"shadow":5020,"VAL":5021,"##ffers":5022,"##Cond":5023,"##ToString":5024,"##log":5025,"extname":5026,"best":5027,"##STA":5028,"arrays":5029,"scrollTop":5030,"screen":5031,"##Bundle":5032,"assets":5033,"saved":5034,"Element":5035,"##aunc":5036,"##leg":5037,"##Classes":5038,"packet":5039,"##Angle":5040,"##Dig":5041,"##ores":5042,"stage":5043,"isB":5044,"##Flags":5045,"##sum":5046,"##rientation":5047,"##Descriptor":5048,"Syntax":5049,"##Prom":5050,"layers":5051,"##Import":5052,"VOW":5053,"##lections":5054,"See":5055,"##ecessary":5056,"##ik":5057,"throws":5058,"Cre":5059,"kv":5060,"##let":5061,"their":5062,"services":5063,"replacement":5064,"phase":5065,"68":5066,"##Publ":5067,"incom":5068,"tak":5069,"##arty":5070,"green":5071,"identif":5072,"##aints":5073,"THREE":5074,"VOWEL":5075,"##irror":5076,"##Nav":5077,"##Legend":5078,"issue":5079,"##ertif":5080,"memo":5081,"##by":5082,"##ullan":5083,"51":5084,"uy":5085,"##ian":5086,"##EC":5087,"##MS":5088,"##QL":5089,"##Exception":5090,"priority":5091,"##bars":5092,"Kd":5093,"saniti":5094,"##EF":5095,"##Watch":5096,"##endar":5097,"signal":5098,"##Components":5099,"Query":5100,"##hron":5101,"##IM":5102,"iframe":5103,"mac":5104,"##OT":5105,"##UInt":5106,"##Http":5107,"der":5108,"##Anc":5109,"smarty":5110,"rs":5111,"##aj":5112,"##ascript":5113,"##puted":5114,"states":5115,"syntax":5116,"##DOM":5117,"##44":5118,"##illis":5119,"##QU":5120,"##Hex":5121,"##ssa":5122,"delegate":5123,"ss":5124,"ul":5125,"##Non":5126,"readdir":5127,"##ahtar":5128,"##AAAAAAAA":5129,"rotate":5130,"76":5131,"##alt":5132,"##plied":5133,"POST":5134,"##bb":5135,"scan":5136,"merged":5137,"configurable":5138,"##Sn":5139,"##Internal":5140,"scene":5141,"ek":5142,"resolver":5143,"##stract":5144,"swagger":5145,"aria":5146,"##bul":5147,"score":5148,"##Post":5149,"##inator":5150,"70":5151,"##hing":5152,"##Exec":5153,"formatted":5154,"##Functions":5155,"Stat":5156,"detect":5157,"##Cursor":5158,"##Vertices":5159,"##Loop":5160,"cc":5161,"##OS":5162,"##sel":5163,"modulePath":5164,"dynamic":5165,"effect":5166,"oauth":5167,"##eter":5168,"REG":5169,"TEXT":5170,"##CharCode":5171,"##Region":5172,"##stanbul":5173,"Options":5174,"how":5175,"mag":5176,"might":5177,"deleted":5178,"interse":5179,"following":5180,"PATH":5181,"##Cb":5182,"opacity":5183,"coordinates":5184,"candidate":5185,"compiled":5186,"mean":5187,"##Resolver":5188,"leading":5189,"deprecated":5190,"mime":5191,"##points":5192,"forward":5193,"small":5194,"polygon":5195,"istanbul":5196,"##GL":5197,"##orders":5198,"##Member":5199,"traverse":5200,"inspect":5201,"Path":5202,"##Sep":5203,"##Factor":5204,"FILE":5205,"##Auto":5206,"You":5207,"dx":5208,"v2":5209,"##Require":5210,"Other":5211,"vector":5212,"face":5213,"##TF":5214,"##erved":5215,"##ination":5216,"conv":5217,"##stat":5218,"cls":5219,"##leri":5220,"Can":5221,"ptr":5222,"promp":5223,"failure":5224,"omit":5225,"##ns":5226,"scop":5227,"inputs":5228,"pag":5229,"##ATION":5230,"means":5231,"injector":5232,"##Side":5233,"##29":5234,"##orting":5235,"##otal":5236,"##omething":5237,"seconds":5238,"Server":5239,"##itel":5240,"Find":5241,"google":5242,"mid":5243,"configure":5244,"RES":5245,"runner":5246,"memory":5247,"69":5248,"book":5249,"##Fail":5250,"ignored":5251,"ear":5252,"tre":5253,"##AC":5254,"##mon":5255,"##Has":5256,"##Pref":5257,"widget":5258,"##Permission":5259,"##DI":5260,"about":5261,"##Renderer":5262,"##tit":5263,"targets":5264,"ENV":5265,"hot":5266,"##Single":5267,"##ries":5268,"expanded":5269,"popup":5270,"registered":5271,"Mn":5272,"sd":5273,"x2":5274,"##13":5275,"##esting":5276,"tail":5277,"##LAY":5278,"##Batch":5279,"##orth":5280,"Value":5281,"##int8Array":5282,"##Ast":5283,"##Abs":5284,"##icker":5285,"double":5286,"##AGE":5287,"99":5288,"STR":5289,"##eta":5290,"devel":5291,"patterns":5292,"named":5293,"##Sources":5294,"##orld":5295,"nextTick":5296,"##Units":5297,"xs":5298,"##verage":5299,"0xFF":5300,"Client":5301,"App":5302,"##Geometry":5303,"above":5304,"happ":5305,"##PP":5306,"##umb":5307,"spaces":5308,"Failed":5309,"isn":5310,"##icode":5311,"interpol":5312,"projectId":5313,"62":5314,"oid":5315,"currently":5316,"tmpl":5317,"Ac":5318,"Dis":5319,"Run":5320,"mc":5321,"##Keyword":5322,"slug":5323,"##ubscri":5324,"Expected":5325,"seq":5326,"mul":5327,"p2":5328,"##Us":5329,"contract":5330,"##Vertex":5331,"65535":5332,"gp":5333,"##angle":5334,"encrypt":5335,"##System":5336,"##Rem":5337,"attrName":5338,"0xD":5339,"##Interface":5340,"SELE":5341,"##Language":5342,"##obile":5343,"##Ctx":5344,"NUM":5345,"qd":5346,"rename":5347,"modifier":5348,"##TagName":5349,"detail":5350,"##Edge":5351,"Parse":5352,"##VG":5353,"##lleg":5354,"##mount":5355,"animate":5356,"getElementById":5357,"dy":5358,"hover":5359,"##UTC":5360,"##Me":5361,"cli":5362,"##Parse":5363,"altern":5364,"##llegal":5365,"production":5366,"known":5367,"speed":5368,"##Description":5369,"Det":5370,"Doc":5371,"vc":5372,"documentElement":5373,"HEAP16":5374,"finally":5375,"##Inclu":5376,"Load":5377,"##ECT":5378,"submit":5379,"flow":5380,"records":5381,"##spector":5382,"cpu":5383,"dimensions":5384,"##88":5385,"explicit":5386,"metr":5387,"##Rece":5388,"##raw":5389,"maximum":5390,"least":5391,"admin":5392,"EVENT":5393,"##rew":5394,"cyan":5395,"browsers":5396,"##actions":5397,"##Computed":5398,"encoder":5399,"##Branch":5400,"##OC":5401,"basePath":5402,"##Fragment":5403,"IS":5404,"##Break":5405,"##trict":5406,"such":5407,"determine":5408,"buil":5409,"writeFileSync":5410,"lin":5411,"Ed":5412,"##other":5413,"##ABLE":5414,"##allow":5415,"firstChild":5416,"##Origin":5417,"##oud":5418,"removeListener":5419,"boot":5420,"##Tmp":5421,"##acts":5422,"##ifiers":5423,"##INE":5424,"evaluate":5425,"question":5426,"##OUN":5427,"issues":5428,"lastIndexOf":5429,"Le":5430,"charset":5431,"interface":5432,"delimiter":5433,"keyCode":5434,"many":5435,"features":5436,"##Old":5437,"##45":5438,"clock":5439,"##Stop":5440,"week":5441,"rendered":5442,"bold":5443,"##37":5444,"inf":5445,"sourceMap":5446,"rx":5447,"##FI":5448,"##69":5449,"##Gr":5450,"retrie":5451,"modelName":5452,"LOG":5453,"FUN":5454,"newNode":5455,"hint":5456,"##Pixel":5457,"##urity":5458,"##ulated":5459,"##iles":5460,"##ici":5461,"##Static":5462,"vertical":5463,"##Theme":5464,"channels":5465,"Ad":5466,"Block":5467,"404":5468,"panel":5469,"##Bounding":5470,"uniforms":5471,"Auth":5472,"##INT":5473,"webkit":5474,"getAll":5475,"processing":5476,"##Defined":5477,"present":5478,"##buffer":5479,"Op":5480,"hi":5481,"##start":5482,"##value":5483,"execut":5484,"measure":5485,"##Marker":5486,"Gener":5487,"camera":5488,"##Rate":5489,"##ured":5490,"frames":5491,"State":5492,"finished":5493,"days":5494,"##ides":5495,"getType":5496,"eventType":5497,"Param":5498,"Symbol":5499,"##Pres":5500,"##tivate":5501,"getC":5502,"##Tasks":5503,"lcssa":5504,"most":5505,"##data":5506,"instances":5507,"persist":5508,"babel":5509,"even":5510,"CR":5511,"Form":5512,"##orph":5513,"requested":5514,"bindings":5515,"##Byte":5516,"construct":5517,"Command":5518,"##ictionary":5519,"initialized":5520,"##Iterator":5521,"##Feature":5522,"97":5523,"##49":5524,"##ench":5525,"##uture":5526,"note":5527,"forms":5528,"moment":5529,"readyState":5530,"Name":5531,"##case":5532,"##bl":5533,"##alf":5534,"##itory":5535,"0xff":5536,"##azy":5537,"##256":5538,"AND":5539,"##Payload":5540,"##way":5541,"getElements":5542,"##Directive":5543,"Missing":5544,"Uint8Array":5545,"ranges":5546,"##amily":5547,"##Cons":5548,"Code":5549,"FA":5550,"##view":5551,"directives":5552,"##area":5553,"View":5554,"##inish":5555,"containing":5556,"##Dialog":5557,"##Null":5558,"OR":5559,"ON":5560,"bug":5561,"light":5562,"##IE":5563,"##Ms":5564,"##ism":5565,"logging":5566,"##Acc":5567,"precision":5568,"Status":5569,"400":5570,"##dr":5571,"isM":5572,"##aps":5573,"below":5574,"DATA":5575,"migr":5576,"##Sw":5577,"##Borders":5578,"##ocom":5579,"sqrt":5580,"starting":5581,"cipher":5582,"authorization":5583,"##SION":5584,"y2":5585,"toArray":5586,"overlay":5587,"Could":5588,"US":5589,"##alle":5590,"##plication":5591,"urls":5592,"Identifier":5593,"##Codes":5594,"##inger":5595,"entities":5596,"ES":5597,"PRE":5598,"##DD":5599,"reload":5600,"isFile":5601,"constant":5602,"fromCharCode":5603,"##error":5604,"##aunch":5605,"77":5606,"rTC":5607,"##cp":5608,"##Worker":5609,"cases":5610,"ARR":5611,"er":5612,"dataSource":5613,"slash":5614,"removeEventListener":5615,"aliases":5616,"##caped":5617,"95":5618,"isNumber":5619,"##Entries":5620,"##ocused":5621,"caller":5622,"memberOf":5623,"Graph":5624,"##Em":5625,"deploy":5626,"another":5627,"##atalog":5628,"Vector":5629,"dirs":5630,"removeChild":5631,"numberOf":5632,"##Namespace":5633,"schedule":5634,"SELECT":5635,"ratio":5636,"##move":5637,"started":5638,"##Overflow":5639,"zone":5640,"##uck":5641,"##rides":5642,"##hronous":5643,"##AE":5644,"##Chars":5645,"Build":5646,"encoded":5647,"dataset":5648,"completed":5649,"ajax":5650,"numbers":5651,"##ullanici":5652,"prompt":5653,"WH":5654,"eq":5655,"noop":5656,"##Direction":5657,"period":5658,"recursive":5659,"bg":5660,"##als":5661,"textContent":5662,"readable":5663,"autom":5664,"##Screen":5665,"Skip":5666,"##host":5667,"##Cmd":5668,"##geo":5669,"jsh":5670,"depend":5671,"DEB":5672,"threw":5673,"##Rep":5674,"##anner":5675,"tarih":5676,"##ASE":5677,"##39":5678,"quot":5679,"unc":5680,"##use":5681,"Dec":5682,"##ued":5683,"##EM":5684,"##ava":5685,"116":5686,"##Validation":5687,"##ClassName":5688,"standard":5689,"##allel":5690,"TI":5691,"UI":5692,"hour":5693,"xa":5694,"##Ab":5695,"##CC":5696,"##acy":5697,"##Annot":5698,"stylesh":5699,"ngeo":5700,"son":5701,"##eel":5702,"##my":5703,"##Warn":5704,"##anti":5705,"0x7":5706,"minimum":5707,"##Upd":5708,"##cast":5709,"ancestor":5710,"##ertificate":5711,"Rout":5712,"horizontal":5713,"something":5714,"##pect":5715,"##bed":5716,"calling":5717,"##Req":5718,"##Comple":5719,"##string":5720,"##ORT":5721,"##Callbacks":5722,"##illisec":5723,"DEBUG":5724,"88":5725,"##Inner":5726,"sym":5727,"attribs":5728,"SUB":5729,"##STAN":5730,"##CB":5731,"shell":5732,"buttons":5733,"javascript":5734,"Loc":5735,"fmt":5736,"##ackets":5737,"##EAD":5738,"images":5739,"decimal":5740,"##Required":5741,"included":5742,"##Icon":5743,"##ird":5744,"suite":5745,"installed":5746,"lineNumber":5747,"##Strategy":5748,"##off":5749,"##wrap":5750,"##acer":5751,"##iteria":5752,"PAR":5753,"##Audio":5754,"##States":5755,"##aused":5756,"policy":5757,"accumulator":5758,"##HR":5759,"##utter":5760,"##eloc":5761,"ic":5762,"##27":5763,"##ather":5764,"getter":5765,"##endor":5766,"##EST":5767,"cookies":5768,"ie":5769,"##UI":5770,"##erve":5771,"disc":5772,"##Bounds":5773,"know":5774,"61":5775,"were":5776,"##High":5777,"statements":5778,"FUNCTION":5779,"##ember":5780,"bool":5781,"works":5782,"##Encoding":5783,"getNode":5784,"##ITOR":5785,"##omp":5786,"cleanup":5787,"##Signature":5788,"Let":5789,"##Es":5790,"getProperty":5791,"##apse":5792,"jshint":5793,"waiting":5794,"##Av":5795,"##ude":5796,"##ents":5797,"##ases":5798,"appName":5799,"protected":5800,"##AND":5801,"symbols":5802,"##Align":5803,"encodeURIComponent":5804,"Otherwise":5805,"##Video":5806,"##Inspector":5807,"formatter":5808,"getElementsBy":5809,"rng":5810,"vnode":5811,"##gen":5812,"ops":5813,"##icro":5814,"getB":5815,"instr":5816,"md5":5817,"OPTION":5818,"##ajor":5819,"##change":5820,"warnings":5821,"phi":5822,"##Prim":5823,"bul":5824,"fd":5825,"##26":5826,"##GB":5827,"stored":5828,"consume":5829,"positions":5830,"immediate":5831,"##Dev":5832,"##agation":5833,"##Integer":5834,"mapped":5835,"STATE":5836,"todo":5837,"##iration":5838,"whitespace":5839,"0x8":5840,"##fox":5841,"tabs":5842,"moz":5843,"##Padding":5844,"numeric":5845,"##urrent":5846,"orientation":5847,"##fill":5848,"##Kind":5849,"writer":5850,"108":5851,"##elocity":5852,"##Wr":5853,"##inder":5854,"##URE":5855,"##Suffix":5856,"increment":5857,"pull":5858,"que":5859,"##Pop":5860,"##Sel":5861,"cols":5862,"descri":5863,"touches":5864,"Don":5865,"##BE":5866,"isPl":5867,"##Buf":5868,"expressions":5869,"##Getter":5870,"cause":5871,"##ceed":5872,"##Temp":5873,"camel":5874,"sender":5875,"##50":5876,"##Labels":5877,"##Hooks":5878,"duplicate":5879,"87":5880,"##olid":5881,"##Delta":5882,"front":5883,"##IGH":5884,"dropdown":5885,"necessary":5886,"rate":5887,"##xx":5888,"##zip":5889,"##regate":5890,"annotation":5891,"92":5892,"##ister":5893,"behavior":5894,"##StatsDict":5895,"piec":5896,"pong":5897,"##History":5898,"0x4":5899,"pret":5900,"##self":5901,"mw":5902,"never":5903,"trunc":5904,"definitions":5905,"##oss":5906,"indexes":5907,"subm":5908,"Initial":5909,"rotation":5910,"##Snap":5911,"74":5912,"CLA":5913,"DB":5914,"So":5915,"hit":5916,"express":5917,"##ucer":5918,"digits":5919,"tracker":5920,"association":5921,"Su":5922,"Vd":5923,"lambda":5924,"rm":5925,"##pear":5926,"##icense":5927,"##antom":5928,"THREW":5929,"BU":5930,"Fire":5931,"RO":5932,"forge":5933,"anahtar":5934,"scrollbar":5935,"disconnect":5936,"FOR":5937,"net":5938,"pay":5939,"##Actions":5940,"threwValue":5941,"78":5942,"Red":5943,"ix":5944,"mm":5945,"threshold":5946,"anything":5947,"mount":5948,"sass":5949,"##bk":5950,"scal":5951,"arrow":5952,"##Dimension":5953,"##seud":5954,"exact":5955,"imports":5956,"##ectories":5957,"feed":5958,"Ass":5959,"##oi":5960,"##VAL":5961,"##IF":5962,"clip":5963,"sugg":5964,"Plugin":5965,"driver":5966,"##Promises":5967,"math":5968,"qs":5969,"ut":5970,"##adcast":5971,"##strap":5972,"##Resolve":5973,"##IZE":5974,"virtual":5975,"startIndex":5976,"execution":5977,"silent":5978,"occur":5979,"t1":5980,"##izing":5981,"rootScope":5982,"handled":5983,"##Addresses":5984,"equals":5985,"73":5986,"getR":5987,"##Separ":5988,"##doc":5989,"##OG":5990,"sets":5991,"##Declar":5992,"WebInspector":5993,"##late":5994,"##XY":5995,"upgr":5996,"flip":5997,"REGEX":5998,"82":5999,"CONF":6000,"NaN":6001,"iv":6002,"##fs":6003,"##KED":6004,"##Recorder":6005,"96":6006,"##ycle":6007,"preview":6008,"Start":6009,"##Manifest":6010,"##Begin":6011,"SC":6012,"live":6013,"##ery":6014,"getFile":6015,"attempt":6016,"Ne":6017,"kill":6018,"uv":6019,"digit":6020,"etc":6021,"fc":6022,"##work":6023,"tok":6024,"moduleId":6025,"updates":6026,"##Seconds":6027,"##ubscribe":6028,"##ra":6029,"##Serial":6030,"##Charac":6031,"packageName":6032,"First":6033,"##aries":6034,"operations":6035,"populate":6036,"##Transaction":6037,"##Timestamp":6038,"denom":6039,"sibling":6040,"##Total":6041,"##olog":6042,"packages":6043,"aws":6044,"visitor":6045,"##Percent":6046,"FROM":6047,"MIN":6048,"##AF":6049,"##Whitespace":6050,"##Secret":6051,"##Pane":6052,"##Groups":6053,"contact":6054,"adv":6055,"visibility":6056,"Convert":6057,"notification":6058,"navigator":6059,"glyph":6060,"Document":6061,"salt":6062,"##book":6063,"##Grid":6064,"##Profile":6065,"##TIVE":6066,"basic":6067,"##ova":6068,"79":6069,"##Att":6070,"categories":6071,"reducer":6072,"py":6073,"##text":6074,"##Chart":6075,"startTime":6076,"##Replace":6077,"##ookup":6078,"EXP":6079,"middle":6080,"##Peer":6081,"matcher":6082,"working":6083,"84":6084,"pause":6085,"##hes":6086,"##unctu":6087,"watcher":6088,"Allow":6089,"Or":6090,"Please":6091,"cut":6092,"##zone":6093,"##onym":6094,"recur":6095,"##Without":6096,"Ht":6097,"VER":6098,"kullanici":6099,"##Browser":6100,"android":6101,"problem":6102,"jq":6103,"##ison":6104,"##add":6105,"plural":6106,"specs":6107,"Inst":6108,"##ellow":6109,"criteria":6110,"##Private":6111,"CKED":6112,"ELE":6113,"mat":6114,"##Split":6115,"CKEDITOR":6116,"At":6117,"##nected":6118,"##Ignore":6119,"##aml":6120,"clon":6121,"deg":6122,"##ordova":6123,"##rollers":6124,"##atis":6125,"##Relative":6126,"directly":6127,"CLASS":6128,"xy":6129,"##BC":6130,"##Show":6131,"responses":6132,"##orthand":6133,"divId":6134,"cells":6135,"bench":6136,"ob":6137,"squ":6138,"tip":6139,"##arge":6140,"##active":6141,"negative":6142,"##Propagation":6143,"converted":6144,"cat":6145,"factor":6146,"##Lock":6147,"##tration":6148,"exclu":6149,"onerror":6150,"userData":6151,"##ryption":6152,"Found":6153,"Try":6154,"dash":6155,"hist":6156,"##Teklif":6157,"##AH":6158,"##IP":6159,"##ixin":6160,"##Series":6161,"##ULL":6162,"ao":6163,"r1":6164,"##ys":6165,"##Ui":6166,"##Zoom":6167,"71":6168,"BY":6169,"Time":6170,"Work":6171,"##Save":6172,"##Agg":6173,"##ker":6174,"0x2":6175,"##clus":6176,"bb":6177,"##only":6178,"##arr":6179,"toFixed":6180,"compati":6181,"115":6182,"generic":6183,"stdin":6184,"##Shader":6185,"##mem":6186,"##cut":6187,"##etter":6188,"##ummy":6189,"##Clone":6190,"120":6191,"usage":6192,"Property":6193,"89":6194,"##uff":6195,"isC":6196,"##imple":6197,"fileContents":6198,"nextSibling":6199,"rejected":6200,"##Operator":6201,"##paces":6202,"##respon":6203,"primitive":6204,"setter":6205,"creating":6206,"tableName":6207,"##Week":6208,"closing":6209,"##Engine":6210,"getCurrent":6211,"connections":6212,"regular":6213,"##ounts":6214,"ln":6215,"sizes":6216,"##stream":6217,"getToken":6218,"##allet":6219,"##outing":6220,"iteration":6221,"Fe":6222,"Window":6223,"##ully":6224,"##Sequence":6225,"CONSTAN":6226,"incoming":6227,"ELEMENT":6228,"SH":6229,"pdf":6230,"sur":6231,"parallel":6232,"##ensitive":6233,"##ookie":6234,"escaped":6235,"Constr":6236,"##Disp":6237,"##illiseconds":6238,"Is":6239,"##Role":6240,"##Native":6241,"##ince":6242,"maps":6243,"statSync":6244,"Deferred":6245,"##ocomplete":6246,"Source":6247,"##66":6248,"conditions":6249,"Spec":6250,"##Use":6251,"resume":6252,"Stream":6253,"peg":6254,"##OWN":6255,"t2":6256,"##ocker":6257,"##Unique":6258,"##Struct":6259,"repository":6260,"past":6261,"##nection":6262,"##Mirror":6263,"##Commit":6264,"There":6265,"preset":6266,"structure":6267,"gpf":6268,"gest":6269,"turn":6270,"##He":6271,"union":6272,"##ildcard":6273,"##Ret0":6274,"Attr":6275,"##Pages":6276,"##Program":6277,"rendering":6278,"markdown":6279,"confirm":6280,"##Immediate":6281,"##Public":6282,"fre":6283,"proper":6284,"displayName":6285,"##Delete":6286,"##TCH":6287,"##Changes":6288,"Utils":6289,"##seudo":6290,"xAxis":6291,"##Margin":6292,"##quent":6293,"clients":6294,"##Adapter":6295,"during":6296,"ym":6297,"##Round":6298,"0x3":6299,"##ube":6300,"isPlain":6301,"SER":6302,"##UID":6303,"##Material":6304,"##Middleware":6305,"##adient":6306,"hasClass":6307,"currentNode":6308,"##Colors":6309,"MS":6310,"gi":6311,"##Cre":6312,"##Center":6313,"##OF":6314,"##Off":6315,"onload":6316,"dirty":6317,"##Partial":6318,"##ipp":6319,"itself":6320,"textarea":6321,"##Allow":6322,"Unable":6323,"choice":6324,"##Absolute":6325,"Cap":6326,"Line":6327,"Vue":6328,"##itten":6329,"nodeId":6330,"currency":6331,"##Notif":6332,"SIZE":6333,"lab":6334,"sen":6335,"ttl":6336,"##vok":6337,"modify":6338,"##Export":6339,"##ERE":6340,"tempor":6341,"NOTE":6342,"##Binary":6343,"Ab":6344,"Float":6345,"kul":6346,"vendor":6347,"##Candidate":6348,"##lear":6349,"getName":6350,"##acket":6351,"extended":6352,"leave":6353,"memberof":6354,"product":6355,"##Slot":6356,"java":6357,"##Observer":6358,"Method":6359,"half":6360,"pc":6361,"##MD":6362,"endsWith":6363,"ful":6364,"##LON":6365,"Store":6366,"uses":6367,"exported":6368,"getElementsByTagName":6369,"btn":6370,"##Compiler":6371,"card":6372,"well":6373,"elt":6374,"frag":6375,"##Links":6376,"implementation":6377,"98":6378,"yellow":6379,"##Defaults":6380,"closest":6381,"91":6382,"ATT":6383,"Sa":6384,"Sub":6385,"ra":6386,"sName":6387,"##oice":6388,"##go":6389,"##23":6390,"##76":6391,"##uple":6392,"transp":6393,"1024":6394,"##StackTrace":6395,"RED":6396,"priv":6397,"##ares":6398,"##amm":6399,"correspon":6400,"observer":6401,"BR":6402,"LEN":6403,"trust":6404,"getDate":6405,"##Clos":6406,"checkbox":6407,"##Completion":6408,"SET":6409,"fast":6410,"license":6411,"##ClientRect":6412,"##Edit":6413,"dispatchEvent":6414,"pairs":6415,"Mongo":6416,"Render":6417,"UP":6418,"compress":6419,"assume":6420,"circle":6421,"##avaScript":6422,"lt":6423,"u00":6424,"##Bit":6425,"##erce":6426,"typeName":6427,"classed":6428,"compos":6429,"immutable":6430,"##Enum":6431,"##Help":6432,"tpl":6433,"##iation":6434,"##kg":6435,"##nce":6436,"##sec":6437,"ekle":6438,"bower":6439,"tempRet0":6440,"##Reader":6441,"Process":6442,"visited":6443,"Custom":6444,"TAG":6445,"fatal":6446,"ttf":6447,"##EG":6448,"##anization":6449,"##PrototypeOf":6450,"81":6451,"oth":6452,"##01":6453,"##JECT":6454,"conver":6455,"dataType":6456,"##tude":6457,"alternate":6458,"lazy":6459,"##Send":6460,"##hal":6461,"##oused":6462,"buffers":6463,"Const":6464,"Control":6465,"Ge":6466,"bi":6467,"bf":6468,"cach":6469,"da":6470,"mx":6471,"##eb":6472,"unlink":6473,"preserve":6474,"Logger":6475,"heap":6476,"300":6477,"Per":6478,"gt":6479,"queries":6480,"##Bus":6481,"getUser":6482,"##TEN":6483,"collapse":6484,"happen":6485,"isPlainObject":6486,"Cache":6487,"Del":6488,"il":6489,"u2":6490,"##oj":6491,"rele":6492,"##Coll":6493,"constraint":6494,"associated":6495,"##ousedown":6496,"Imp":6497,"zh":6498,"##Finish":6499,"##eni":6500,"inverse":6501,"##ences":6502,"reg2":6503,"overl":6504,"##aim":6505,"##eets":6506,"userAgent":6507,"##Requests":6508,"prepend":6509,"combine":6510,"OPTIONS":6511,"Str":6512,"bot":6513,"mak":6514,"##IR":6515,"##Categ":6516,"invert":6517,"transfer":6518,"##Subscri":6519,"PROP":6520,"##Dependency":6521,"against":6522,"bundles":6523,"retrieve":6524,"##IGHT":6525,"And":6526,"##filer":6527,"##erial":6528,"tri":6529,"##FontSize":6530,"vec3":6531,"snapshot":6532,"kvPos":6533,"bootstrap":6534,"future":6535,"np":6536,"##unce":6537,"##ications":6538,"security":6539,"privateKey":6540,"insertBefore":6541,"Database":6542,"roll":6543,"CONFIG":6544,"##Kalem":6545,"ortc":6546,"##lector":6547,"##Arrays":6548,"localStorage":6549,"Me":6550,"Oper":6551,"Pr":6552,"qual":6553,"##uce":6554,"##uages":6555,"##Opt":6556,"##Strings":6557,"##ticle":6558,"101":6559,"pageY":6560,"##Core":6561,"getBounding":6562,"strategy":6563,"105":6564,"##Define":6565,"112":6566,"whiteList":6567,"sanitize":6568,"tex":6569,"114":6570,"##Connect":6571,"##Packet":6572,"##FullYear":6573,"VALUE":6574,"##OUND":6575,"WHERE":6576,"ka":6577,"##ever":6578,"chrome":6579,"setjmp":6580,"chartSpace":6581,"##Draw":6582,"querySelectorAll":6583,"relationship":6584,"##onymous":6585,"chartSpaceScale":6586,"86":6587,"By":6588,"stable":6589,"tokenizer":6590,"develop":6591,"contr":6592,"parsing":6593,"##ITY":6594,"invoked":6595,"##Extensions":6596,"readonly":6597,"rgba":6598,"reg2mem":6599,"durum":6600,"fall":6601,"##Merge":6602,"wrong":6603,"##Common":6604,"checking":6605,"decrypt":6606,"yh":6607,"##fully":6608,"##ane":6609,"##icies":6610,"123":6611,"walker":6612,"83":6613,"tn":6614,"##hook":6615,"##db":6616,"##Filters":6617,"##Minutes":6618,"CONSTANTS":6619,"Gd":6620,"bbox":6621,"##Border":6622,"getParent":6623,"outputs":6624,"leg":6625,"leaf":6626,"publicKey":6627,"receiver":6628,"##Indices":6629,"controls":6630,"Service":6631,"Scope":6632,"##Phase":6633,"big":6634,"mail":6635,"rank":6636,"isBuffer":6637,"getData":6638,"sheet":6639,"##ERS":6640,"##Services":6641,"black":6642,"Unexpected":6643,"Resol":6644,"supports":6645,"setjmpTable":6646,"pg":6647,"##Joint":6648,"##lean":6649,"specify":6650,"110":6651,"##ressed":6652,"actually":6653,"receive":6654,"navigation":6655,"##Generator":6656,"##Assignment":6657,"aud":6658,"hr":6659,"rc":6660,"##Used":6661,"##orization":6662,"##ulation":6663,"##itude":6664,"##oded":6665,"deal":6666,"pageX":6667,"Exec":6668,"mongoose":6669,"01":6670,"##ised":6671,"defaultOptions":6672,"resolution":6673,"##ively":6674,"##Transport":6675,"blind":6676,"country":6677,"archive":6678,"automatic":6679,"93":6680,"ball":6681,"##pings":6682,"comma":6683,"##Routes":6684,"Table":6685,"##YY":6686,"##77":6687,"asc":6688,"##print":6689,"stylesheet":6690,"fp":6691,"##tle":6692,"##Illegal":6693,"##Inline":6694,"outline":6695,"0x5":6696,"subscription":6697,"##Condition":6698,"Copy":6699,"SHA":6700,"pp":6701,"r2":6702,"getText":6703,"consum":6704,"##Reject":6705,"minutes":6706,"##Viewport":6707,"blur":6708,"MAP":6709,"tools":6710,"##screen":6711,"ARRAY":6712,"##Push":6713,"##Queries":6714,"##eff":6715,"unused":6716,"requestOptions":6717,"relativePath":6718,"##regation":6719,"##filled":6720,"SP":6721,"Task":6722,"oThis":6723,"##Hidden":6724,"##Credentials":6725,"##isting":6726,"functionName":6727,"##Variables":6728,"footer":6729,"broadcast":6730,"indicator":6731,"reconnect":6732,"##Escape":6733,"94":6734,"Callback":6735,"finger":6736,"##ks":6737,"getContext":6738,"Errors":6739,"##Views":6740,"Hel":6741,"##CON":6742,"those":6743,"oldValue":6744,"monitor":6745,"scheme":6746,"Enc":6747,"TE":6748,"UInt":6749,"c1":6750,"##Pipe":6751,"##enVertices":6752,"chr":6753,"##river":6754,"unexpected":6755,"##ourc":6756,"handleError":6757,"addresses":6758,"TIME":6759,"Ver":6760,"gutter":6761,"##fn":6762,"##uz":6763,"##tid":6764,"getActive":6765,"##ToArray":6766,"backward":6767,"annotations":6768,"treat":6769,"pretty":6770,"##cha":6771,"positive":6772,"##Commands":6773,"roles":6774,"readdirSync":6775,"built":6776,"COL":6777,"Over":6778,"READ":6779,"##Tw":6780,"##21":6781,"getS":6782,"##ands":6783,"##ibl":6784,"alloc":6785,"##Loading":6786,"##Poly":6787,"SAB":6788,"SVG":6789,"Wk":6790,"jw":6791,"##index":6792,"##sequent":6793,"getLine":6794,"throwError":6795,"messageId":6796,"##Play":6797,"arity":6798,"team":6799,"scopes":6800,"dd":6801,"et":6802,"##Amount":6803,"##65":6804,"##ints":6805,"getId":6806,"Strings":6807,"peek":6808,"scheduler":6809,"Transform":6810,"metrics":6811,"##Annotation":6812,"SABIT":6813,"Zk":6814,"h1":6815,"pm":6816,"##84":6817,"##oring":6818,"replaced":6819,"checkType":6820,"editable":6821,"overwrite":6822,"##ComputedStyle":6823,"Tem":6824,"world":6825,"##Db":6826,"configs":6827,"offsets":6828,"111":6829,"##Refs":6830,"##erenced":6831,"byteLength":6832,"CoreIllegal":6833,"##Password":6834,"##Invalid":6835,"##ught":6836,"ticks":6837,"End":6838,"arc":6839,"equ":6840,"hm":6841,"##rency":6842,"##SA":6843,"##rott":6844,"##verity":6845,"whole":6846,"outside":6847,"##Dirs":6848,"linked":6849,"swap":6850,"partials":6851,"Debug":6852,"##Destroy":6853,"executed":6854,"##part":6855,"##cs":6856,"0x80":6857,"appId":6858,"##Cols":6859,"sections":6860,"##Refresh":6861,"INF":6862,"fixer":6863,"Response":6864,"respond":6865,"##Previous":6866,"Validation":6867,"aggregate":6868,"answer":6869,"cop":6870,"##Mock":6871,"getPath":6872,"##LETE":6873,"##32Array":6874,"##alculate":6875,"Pol":6876,"ping":6877,"##FS":6878,"##here":6879,"appear":6880,"##Many":6881,"blank":6882,"##Constraints":6883,"ring":6884,"##Drop":6885,"##onts":6886,"consumer":6887,"##Resize":6888,"comple":6889,"##Dirty":6890,"##ORE":6891,"##Sheet":6892,"unsubscribe":6893,"due":6894,"##dom":6895,"0x11":6896,"117":6897,"150":6898,"terminal":6899,"interpolate":6900,"sonuc":6901,"cloned":6902,"Fl":6903,"pur":6904,"##ee":6905,"##Effect":6906,"##Ws":6907,"##ons":6908,"##ilation":6909,"gets":6910,"atom":6911,"##Separator":6912,"Em":6913,"TYP":6914,"##3d":6915,"phantom":6916,"##Scrollbar":6917,"STRING":6918,"kitch":6919,"##Hours":6920,"##oft":6921,"logs":6922,"104":6923,"##aving":6924,"ember":6925,"##Alpha":6926,"##Remote":6927,"Go":6928,"New":6929,"crc":6930,"rhs":6931,"##orized":6932,"addListener":6933,"dirPath":6934,"compose":6935,"responseText":6936,"##Plugins":6937,"kitchenVertices":6938,"Ng":6939,"mtime":6940,"##las":6941,"##Xml":6942,"##alth":6943,"projection":6944,"apps":6945,"##ogn":6946,"documents":6947,"##Positions":6948,"circular":6949,"authentication":6950,"Optional":6951,"CA":6952,"OK":6953,"##ahead":6954,"##Tri":6955,"unless":6956,"##ariant":6957,"##Threshold":6958,"##HttpRequest":6959,"Open":6960,"bc":6961,"hours":6962,"x0":6963,"ins":6964,"##Stage":6965,"childNode":6966,"deserial":6967,"##Score":6968,"levels":6969,"##Compare":6970,"##Coordinates":6971,"Must":6972,"fun":6973,"fake":6974,"##ateway":6975,"getItem":6976,"##Report":6977,"supplied":6978,"##Times":6979,"cycle":6980,"CHAR":6981,"optimize":6982,"Write":6983,"rand":6984,"vi":6985,"##96":6986,"##oles":6987,"syn":6988,"upgrade":6989,"##Dispatch":6990,"Media":6991,"sing":6992,"tb":6993,"##bit":6994,"uni":6995,"shard":6996,"##Exit":6997,"Fil":6998,"c2":6999,"ep":7000,"fold":7001,"mesh":7002,"##Between":7003,"##Btn":7004,"calendar":7005,"stopPropagation":7006,"##Any":7007,"##Runtime":7008,"choices":7009,"##Constant":7010,"FLA":7011,"Main":7012,"Range":7013,"##zer":7014,"adding":7015,"handling":7016,"STAT":7017,"recurse":7018,"AR":7019,"a1":7020,"jd":7021,"##orrect":7022,"##ogram":7023,"##TextNode":7024,"##ensor":7025,"streams":7026,"allows":7027,"datasets":7028,"servers":7029,"107":7030,"Resource":7031,"PL":7032,"hold":7033,"major":7034,"routing":7035,"##tor":7036,"##onical":7037,"getOwnProperty":7038,"linear":7039,"checks":7040,"getBoundingClientRect":7041,"cmp":7042,"##ilg":7043,"getM":7044,"keydown":7045,"controllers":7046,"clbk":7047,"pathTo":7048,"applied":7049,"good":7050,"Dom":7051,"Sw":7052,"fj":7053,"##Sent":7054,"##ars":7055,"restrict":7056,"unicode":7057,"##afari":7058,"WebGL":7059,"Dir":7060,"cd":7061,"mousedown":7062,"zA":7063,"##oper":7064,"##ced":7065,"##query":7066,"109":7067,"clientId":7068,"##References":7069,"bulk":7070,"##ology":7071,"Windows":7072,"gesture":7073,"Access":7074,"CT":7075,"Link":7076,"Pref":7077,"dates":7078,"ff":7079,"s2":7080,"sce":7081,"newline":7082,"##Insert":7083,"consider":7084,"##Validator":7085,"important":7086,"difference":7087,"typed":7088,"isP":7089,"##osal":7090,"103":7091,"signed":7092,"##Bindings":7093,"Emit":7094,"Inc":7095,"dj":7096,"##IST":7097,"##Bits":7098,"##Ranges":7099,"##70":7100,"##ina":7101,"##Inject":7102,"minor":7103,"guess":7104,"guid":7105,"##Optional":7106,"##Proto":7107,"##Words":7108,"##Structure":7109,"##lib":7110,"##ansion":7111,"locations":7112,"##Enter":7113,"accord":7114,"brackets":7115,"Parser":7116,"devices":7117,"branchName":7118,"##ABY":7119,"attachment":7120,"TYPES":7121,"pot":7122,"##bind":7123,"##OU":7124,"getComputedStyle":7125,"##cripts":7126,"##LEN":7127,"formats":7128,"##Platform":7129,"Connection":7130,"fontSize":7131,"Gets":7132,"Mc":7133,"PDF":7134,"cast":7135,"tap":7136,"##Section":7137,"##Vector":7138,"##Dot":7139,"##tition":7140,"##External":7141,"PRO":7142,"##Channels":7143,"##glify":7144,"##Anchor":7145,"dummy":7146,"family":7147,"gme":7148,"rtn":7149,"##for":7150,"##Typ":7151,"##ky":7152,"##Horizontal":7153,"activity":7154,"##Resources":7155,"processor":7156,"##Deferred":7157,"Inter":7158,"##Matcher":7159,"##00000":7160,"##PACE":7161,"##iblings":7162,"Vari":7163,"##isi":7164,"getP":7165,"directories":7166,"board":7167,"interf":7168,"BO":7169,"nd":7170,"oct":7171,"##TYPE":7172,"toJSON":7173,"##Conc":7174,"selectAll":7175,"globals":7176,"cx":7177,"docker":7178,"##istic":7179,"##store":7180,"##rees":7181,"snipp":7182,"pixels":7183,"tiles":7184,"##ric":7185,"##Fun":7186,"##rocess":7187,"##apes":7188,"##Prod":7189,"Ensure":7190,"GL":7191,"hy":7192,"##79":7193,"##XML":7194,"getMonth":7195,"keyboard":7196,"instanti":7197,"confl":7198,"everything":7199,"##Original":7200,"##Character":7201,"##ABYLON":7202,"cloud":7203,"##achable":7204,"##Shadow":7205,"age":7206,"vs":7207,"##ital":7208,"expl":7209,"setInterval":7210,"##losed":7211,"102":7212,"##Definitions":7213,"146":7214,"START":7215,"freeze":7216,"answers":7217,"STATUS":7218,"BABYLON":7219,"focused":7220,"rt":7221,"##Sample":7222,"##mask":7223,"##Card":7224,"##OUT":7225,"##58":7226,"onay":7227,"objUnit":7228,"complex":7229,"cssText":7230,"conditional":7231,"accessor":7232,"dragging":7233,"identifiers":7234,"immediately":7235,"sol":7236,"##ival":7237,"##Rot":7238,"##enames":7239,"near":7240,"Chrome":7241,"##span":7242,"Reference":7243,"certificate":7244,"##tain":7245,"thread":7246,"isDefined":7247,"sprite":7248,"intercept":7249,"iteratorNormal":7250,"##Period":7251,"##Slash":7252,"iteratorNormalCompletion":7253,"Big":7254,"Test":7255,"UTF":7256,"##ACK":7257,"##Fetch":7258,"##Eval":7259,"##icient":7260,"##Urls":7261,"##pared":7262,"revision":7263,"Http":7264,"ssl":7265,"##pting":7266,"trip":7267,"errorMessage":7268,"impl":7269,"##tine":7270,"apiKey":7271,"backend":7272,"INT":7273,"##Edges":7274,"##Background":7275,"glyf":7276,"Pos":7277,"bol":7278,"##Tail":7279,"currentTime":7280,"##ODES":7281,"##Prec":7282,"waitFor":7283,"FIX":7284,"ALL":7285,"norm":7286,"rb":7287,"##ali":7288,"##Information":7289,"##Indexes":7290,"##ighb":7291,"observable":7292,"Match":7293,"MAR":7294,"Obser":7295,"##Support":7296,"##Lookup":7297,"##col":7298,"elapsed":7299,"minim":7300,"##Validate":7301,"tables":7302,"##Overlay":7303,"##Policy":7304,"iteratee":7305,"##Available":7306,"##Skip":7307,"##ably":7308,"except":7309,"aspect":7310,"serve":7311,"compact":7312,"126":7313,"##AAA":7314,"localhost":7315,"workers":7316,"webs":7317,"postMessage":7318,"##umeric":7319,"dispose":7320,"subscriptions":7321,"Save":7322,"b2":7323,"##gers":7324,"##34":7325,"##zier":7326,"inte":7327,"##ifec":7328,"##Exist":7329,"opening":7330,"diag":7331,"##Decor":7332,"Collection":7333,"DIR":7334,"caret":7335,"Multi":7336,"Socket":7337,"Vec":7338,"##pend":7339,"##UB":7340,"##Gl":7341,"##alendar":7342,"##achine":7343,"ask":7344,"letter":7345,"modifiers":7346,"125":7347,"##beat":7348,"BASE":7349,"micro":7350,"##rase":7351,"##ners":7352,"##inary":7353,"ack":7354,"##encil":7355,"overrides":7356,"##parent":7357,"ordered":7358,"ME":7359,"##ract":7360,"##nos":7361,"##fc":7362,"##Tx":7363,"##Face":7364,"codegen":7365,"sys":7366,"coverage":7367,"reporter":7368,"failures":7369,"intersection":7370,"##Received":7371,"dial":7372,"sr":7373,"##info":7374,"things":7375,"##idget":7376,"formatting":7377,"Replace":7378,"##Decimal":7379,"restart":7380,"easing":7381,"schemas":7382,"automatically":7383,"IP":7384,"Matrix":7385,"Pass":7386,"##Room":7387,"##Join":7388,"reserved":7389,"setHeader":7390,"scr":7391,"##igned":7392,"phone":7393,"nonce":7394,"cred":7395,"fit":7396,"launch":7397,"##Sizes":7398,"##BU":7399,"##ength":7400,"logic":7401,"preload":7402,"##LED":7403,"minute":7404,"##Docs":7405,"Prov":7406,"embedded":7407,"##Navig":7408,"pseudo":7409,"##ainder":7410,"##WE":7411,"##Weight":7412,"##Inf":7413,"##Added":7414,"keywords":7415,"Image":7416,"Brt":7417,"DIS":7418,"ech":7419,"holder":7420,"wallet":7421,"##med":7422,"getKey":7423,"getConfig":7424,"curve":7425,"rootPath":7426,"118":7427,"113":7428,"adap":7429,"##Into":7430,"secure":7431,"Stop":7432,"##atitude":7433,"Uns":7434,"ENO":7435,"platforms":7436,"performance":7437,"mutation":7438,"describe":7439,"corresponding":7440,"Out":7441,"Point":7442,"##Kurum":7443,"##ın":7444,"getPrototypeOf":7445,"newData":7446,"logLevel":7447,"writeUInt":7448,"defered":7449,"markup":7450,"fillStyle":7451,"SS":7452,"give":7453,"hset":7454,"sid":7455,"##obj":7456,"##Tile":7457,"##Vec":7458,"##AV":7459,"##andbox":7460,"spin":7461,"readOnly":7462,"offsetHeight":7463,"##overy":7464,"decoded":7465,"##ATOR":7466,"##itelist":7467,"##clusion":7468,"Man":7469,"Now":7470,"##gable":7471,"##tree":7472,"##fr":7473,"##lize":7474,"##Cookie":7475,"##Go":7476,"seek":7477,"currentState":7478,"##ORD":7479,"renderTarget":7480,"detected":7481,"##Short":7482,"ownerDocument":7483,"combined":7484,"duplic":7485,"FLAG":7486,"Messages":7487,"wildcard":7488,"##Mixin":7489,"##aged":7490,"arg3":7491,"##versed":7492,"setState":7493,"##ByName":7494,"transformed":7495,"##Disabled":7496,"##Include":7497,"CODES":7498,"Ignore":7499,"##lass":7500,"##Once":7501,"##42":7502,"##GTH":7503,"##Zone":7504,"##ones":7505,"fore":7506,"windows":7507,"IND":7508,"placement":7509,"##Resolved":7510,"Color":7511,"Firefox":7512,"MESS":7513,"##ALE":7514,"##Lat":7515,"##bility":7516,"##ini":7517,"retval":7518,"getFullYear":7519,"##InProgress":7520,"loan":7521,"expires":7522,"statData":7523,"locales":7524,"Tool":7525,"preced":7526,"development":7527,"1e":7528,"OLAY":7529,"a2":7530,"bs":7531,"dl":7532,"##Book":7533,"##inite":7534,"##asic":7535,"clientHeight":7536,"prior":7537,"registration":7538,"##Topic":7539,"poll":7540,"##Formatter":7541,"##iddlewares":7542,"TOK":7543,"##VALID":7544,"cordova":7545,"m1":7546,"tt":7547,"##Ihale":7548,"##OUR":7549,"##31":7550,"##enti":7551,"##ins":7552,"##emap":7553,"getState":7554,"readUInt":7555,"148":7556,"fullName":7557,"MODE":7558,"##Override":7559,"configured":7560,"Ar":7561,"Mark":7562,"WAR":7563,"dictionary":7564,"fac":7565,"won":7566,"##hand":7567,"##Missing":7568,"setValue":7569,"106":7570,"##Selectors":7571,"mdUtil":7572,"skipped":7573,"csv":7574,"##Digits":7575,"Wrap":7576,"around":7577,"ios":7578,"rval":7579,"sa":7580,"##It":7581,"##mod":7582,"##Uint":7583,"parentPath":7584,"checksum":7585,"250":7586,"packageJson":7587,"##Blocks":7588,"preprocess":7589,"##class":7590,"##Ptr":7591,"##abb":7592,"removeAll":7593,"scroller":7594,"going":7595,"##Connected":7596,"##Router":7597,"Tc":7598,"dump":7599,"##ru":7600,"##Same":7601,"iso":7602,"writel":7603,"rootNode":7604,"cacheKey":7605,"##ierarch":7606,"opened":7607,"shortcut":7608,"COMP":7609,"##Snapshot":7610,"writeln":7611,"NULL":7612,"ST":7613,"Send":7614,"##Hover":7615,"##vg":7616,"##59":7617,"##ama":7618,"unre":7619,"heading":7620,"fns":7621,"decoder":7622,"130":7623,"isNull":7624,"REGEXP":7625,"132":7626,"RGB":7627,"pn":7628,"##artbeat":7629,"providers":7630,"##SourceMap":7631,"DELETE":7632,"accessToken":7633,"comparison":7634,"Parameter":7635,"##Email":7636,"queued":7637,"Sl":7638,"b1":7639,"h2":7640,"medi":7641,"##Patch":7642,"newVal":7643,"scen":7644,"##ugment":7645,"offsetWidth":7646,"Cons":7647,"##FFER":7648,"preferences":7649,"##Library":7650,"according":7651,"sock":7652,"##lines":7653,"##Href":7654,"##loaded":7655,"##mlink":7656,"124":7657,"Attribute":7658,"LENGTH":7659,"Filter":7660,"CLI":7661,"tern":7662,"##press":7663,"##Pool":7664,"##Tahta":7665,"returning":7666,"119":7667,"attributeName":7668,"INVALID":7669,"Events":7670,"##Slug":7671,"Mo":7672,"Yd":7673,"dict":7674,"ease":7675,"mand":7676,"s1":7677,"sourc":7678,"##frame":7679,"##2d":7680,"expiration":7681,"fromIndex":7682,"distr":7683,"pluginName":7684,"##END":7685,"appendTo":7686,"serviceRegistry":7687,"##Templates":7688,"Result":7689,"translation":7690,"closure":7691,"Determ":7692,"JavaScript":7693,"cent":7694,"rp":7695,"##sis":7696,"##Pkg":7697,"transactions":7698,"recip":7699,"autocomplete":7700,"transforms":7701,"destroyed":7702,"Expr":7703,"had":7704,"ls":7705,"paused":7706,"##com":7707,"keyName":7708,"shim":7709,"attrNode":7710,"desired":7711,"DEV":7712,"##Reducer":7713,"##Priority":7714,"CLO":7715,"Iter":7716,"Sty":7717,"samples":7718,"##Mut":7719,"vals":7720,"exponent":7721,"collections":7722,"eventData":7723,"swipe":7724,"visual":7725,"caption":7726,"##ReadStream":7727,"##Coords":7728,"##process":7729,"L11":7730,"dc":7731,"jp":7732,"ke":7733,"rpc":7734,"getLast":7735,"nodeList":7736,"onMouse":7737,"topics":7738,"##Trigger":7739,"##Strict":7740,"##Shape":7741,"##andidates":7742,"comparator":7743,"##cepts":7744,"##Star":7745,"addTo":7746,"caps":7747,"invariant":7748,"##Features":7749,"Inte":7750,"FIXME":7751,"Des":7752,"bite":7753,"hard":7754,"##reens":7755,"##eline":7756,"##Clause":7757,"emitted":7758,"iterable":7759,"##Outer":7760,"##ernel":7761,"mousemove":7762,"organization":7763,"Constructor":7764,"cn":7765,"##Ok":7766,"##war":7767,"onChange":7768,"##izers":7769,"##Steps":7770,"fileInfo":7771,"configPath":7772,"subtract":7773,"clientX":7774,"##yph":7775,"mouseup":7776,"sha1":7777,"suppress":7778,"TOKEN":7779,"OB":7780,"milliseconds":7781,"uA":7782,"##Pending":7783,"startOffset":7784,"coerce":7785,"descend":7786,"##Warning":7787,"AC":7788,"Dep":7789,"rob":7790,"##56":7791,"unes":7792,"remainder":7793,"##Endpoint":7794,"##Providers":7795,"##buf":7796,"##Retry":7797,"##eam":7798,"##GER":7799,"appPath":7800,"constraints":7801,"funcs":7802,"blend":7803,"URI":7804,"##Cells":7805,"##Tooltip":7806,"longer":7807,"catalog":7808,"sKey":7809,"##fg":7810,"##eros":7811,"clientY":7812,"147":7813,"detach":7814,"svc":7815,"separate":7816,"semver":7817,"TABLE":7818,"fur":7819,"##net":7820,"##Schem":7821,"##Fill":7822,"suc":7823,"##atory":7824,"##Comb":7825,"abstract":7826,"##IND":7827,"originalEvent":7828,"resourceName":7829,"longname":7830,"##Patterns":7831,"slots":7832,"gmf":7833,"Version":7834,"##rink":7835,"##PS":7836,"##iy":7837,"##ba":7838,"##agraph":7839,"##riting":7840,"0xf":7841,"webhook":7842,"##Syntax":7843,"simpl":7844,"Expression":7845,"permissions":7846,"##Allowed":7847,"snippet":7848,"yaml":7849,"##und":7850,"valueOf":7851,"errorCallback":7852,"shorthand":7853,"122":7854,"intent":7855,"imported":7856,"REQU":7857,"gutil":7858,"##umbn":7859,"mci":7860,"##Account":7861,"Current":7862,"Field":7863,"better":7864,"far":7865,"##Cancel":7866,"##ceeded":7867,"nodeify":7868,"validators":7869,"##illa":7870,"167":7871,"##Models":7872,"marked":7873,"##Parents":7874,"##Img":7875,"##StackOverflow":7876,"OPEN":7877,"sha256":7878,"Constants":7879,"02":7880,"DD":7881,"Dynam":7882,"GR":7883,"infer":7884,"enough":7885,"##tinu":7886,"rowIndex":7887,"componentName":7888,"140":7889,"144":7890,"159":7891,"##Inputs":7892,"declared":7893,"abortStackOverflow":7894,"18014":7895,"dont":7896,"tuple":7897,"##uting":7898,"##Zero":7899,"defs":7900,"setImmediate":7901,"##opts":7902,"INTER":7903,"REP":7904,"##Vertical":7905,"guard":7906,"##Print":7907,"##Multiple":7908,"##voke":7909,"WARN":7910,"Rel":7911,"v0":7912,"##BO":7913,"##alance":7914,"thrott":7915,"returnFiber":7916,"##ilar":7917,"strong":7918,"severity":7919,"objectStack":7920,"mappings":7921,"validated":7922,"webgl":7923,"Change":7924,"clearInterval":7925,"boundary":7926,"moveTo":7927,"##cli":7928,"coords":7929,"##Quote":7930,"uyari":7931,"VERSION":7932,"Game":7933,"ihal":7934,"##Scripts":7935,"##90":7936,"##rem":7937,"##utor":7938,"##args":7939,"findOne":7940,"##Interpol":7941,"inserted":7942,"##Install":7943,"lookahead":7944,"##Summary":7945,"encrypted":7946,"##Declarations":7947,"Tim":7948,"lit":7949,"##olume":7950,"Reset":7951,"temporary":7952,"dialect":7953,"codes":7954,"ej":7955,"hsl":7956,"##Du":7957,"##98":7958,"##legate":7959,"ones":7960,"paramName":7961,"##ibution":7962,"##Configs":7963,"assigned":7964,"##NotFound":7965,"UNI":7966,"##Assoc":7967,"broker":7968,"##Placeholder":7969,"##Category":7970,"Be":7971,"bus":7972,"oElement":7973,"pd":7974,"##Px":7975,"##ipt":7976,"initi":7977,"newChild":7978,"idle":7979,"##verti":7980,"##Seq":7981,"trying":7982,"namespaces":7983,"##Running":7984,"lexer":7985,"##Need":7986,"##Failure":7987,"oids":7988,"##FIX":7989,"Initialize":7990,"Av":7991,"Schema":7992,"ho":7993,"mass":7994,"getUTC":7995,"##EAR":7996,"scrollLeft":7997,"##ARY":7998,"192":7999}}}